00000000
00000000
3F294271
3E4BE576
3F3F2345
3E9B4D72
3F5E6BF3
3EE2B845
3CCC4611
3F1D6A38
3E598408
3F5134D3
3EDBA99B
3D430B19
3F2C3958
3E9BC0A4
3F7117D9
3F15D2FA
3E70143C
3F63A275
3F0C9FA7
3E5BC7EF
3F628F23
3F0F6D42
3E760CA4
3F6CC788
3F1D31F5
3E9D7433
3BAC0ADF
3F350456
3ED36F3A
3DFB581D
3F56178C
3F0DB702
3E8C8618
3F7FB5C5
3F3A095B
3EEA70C2
3E44F640
3F6E13A3
3F2BB5BA
3ED43DB5
3E252AAE
3F693485
3F29D820
3ED66340
3E34F177
3F6FF52A
3F3357C2
3EEEC14E
3E70316F
3BABBB71
3F473ECA
3F0DBE9C
3EA9A90B
3DE3E845
3F64B55B
3F2D7A9D
3EED9431
3E81427C
3D2FD1A9
3F55DB9A
3F2139EE
3EDA2BAE
3E65B403
3CC7A56D
3F53843B
3F213FA4
3EDEDC03
3E78335C
3D51A214
3F5C942E
3F2C791E
3EF98E2A
3E9AF81B
3DF4B657
3F701521
3F41F5A9
3F1436B0
3ECDAD4F
3E675149
3D52DAC3
3F60E1C2
3F34EEBA
3F095380
3EBC1D0E
3E4C7A45
3D082613
3F5E3897
3F344017
3F0A97A5
3EC27BB2
3E60C718
3D77255B
3F66FE4A
3F3ED48E
3F16F432
3EDEB7F4
3E9015EC
3E0400E2
3F7A3AAB
3F53B982
3F2D7BD4
3F07808C
3EC38D78
3E713671
3DB8A336
3F721A08
3F4D5E09
3F28DF52
3F049D1A
3EC12D3B
3E732CED
3DC9D02E
3F75E25E
3F52C37E
3F2FDCC6
3F0D2D71
3ED5696C
3E90E440
3E19939D
3C918DA7
3F62E7E7
3F417709
3F20390D
3EFE5A59
3EBCA5E2
3E76A828
3DE98B13
3F7CE8D3
3F5CCFE8
3F3CE5AE
3F1D29B0
3EFB373A
3EBC75AD
3E7C1B95
3DFFFA92
3B91AB70
3F6272EF
3F43ED57
3F2591F2
3F076070
3ED2B1A0
3E96F3FA
3E370E9F
3D81AE7F
3F72CFB1
3F5590AC
3F387897
3F1B874B
3EFD7803
3EC42CD3
3E8B2C6A
3E24EC51
3D504684
3F70F209
3F5503A8
3F3938A5
3F1D90DA
3F020BF6
3ECD5305
3E96D211
3E412A20
3DAA6C4E
3F7A71BD
3F5FB6A9
3F451C29
3F2AA215
3F1047A7
3EEC19BD
3EB7E328
3E83EAA0
3E205E70
3D6589F5
3F74B7BD
3F5B34CD
3F41CF58
3F288783
3F0F5CB2
3EEC9D26
3EBABA9E
3E89108E
3E2F3D4C
3D99925F
3F7AB0B9
3F624A99
3F49FF77
3F31CF53
3F19B9DE
3F01BEC9
3ED3BC25
3EA42E3A
3E69A83E
3E0B592E
3D35C204
3F73FAF1
3F5CB2BD
3F45835C
3F2E6C2E
3F176D83
3F0086E3
3ED37050
3EA60251
3E718658
3E1765C1
3D768680
3F790E55
3F62CAE9
3F4C9E4B
3F3687DB
3F2087C3
3F0A9DD9
3EE99350
3EBE16AC
3E92C4DA
3E4F3BB0
3DF28424
3D0E75DB
3F739326
3F5E5390
3F49289B
3F3411F9
3F1F0FA9
3F0A215C
3EEA8E75
3EC101E9
3E979C25
3E5CBB90
3E0A8C67
3D62A8C3
3F79C513
3F6572B0
3F513311
3F3D0610
3F28EBAD
3F14E398
3F00EE21
3EDA14B3
3EB271C0
3E8AF2CA
3E472E68
3DF17BF1
3D2A4C24
3F772BB8
3F63C3C3
3F506D2D
3F3D27A7
3F29F2E3
3F16CEE0
3F03BB9E
3EE17239
3EBB8E1B
3E95CADF
3E604FD1
3E154A6C
3D950B21
00000000

