3b323fc5
be59339a
be7ddd79
3d7b5061
3ee95439
3ebb766f
3f463d2a
3e72503c
bf44b67a
be4421ba
be38015c
be1ec5aa
be39fa8b
3e7f55e9
3e6bbbfc
3f6e4fa4
bd9e6ba9
3e502a5e
3e73a91a
3dae5e2b
3e76c7a9
beed5c15
3ef0d782
be60ed57
be8958f6
3ed5b246
3ea03bc2
bece9e6f
3e13a38c
3e5d7dd6
be84ebee
be7ca1fe
3ee280d7
be517204
bf5ce00d
be264419
3e6d540e
3e82f341
3e626239
3e3af985
3ec63013
3e7a00ab
bea7d638
3e622fd8
be0090f5
be8e2de8
bf7fb58f
3e290f0c
bf2ad1eb
3e87c440
3e4727ea
be76a7de
3e878b38
bdfc664c
be97f80a
3f2d22c6
3eef53c8
3e971a0a
bdf3c449
3bb623e8
3e1e63c5
be1e05dc
be96e531
3e9e0bcc
3e0c5960
3ed95450
3e48fcb0
3e5337fc
bda9a18c
3f3863d0
3d4313ea
3eb389fe
bdf9ee19
be548fcc
bce8ebf5
be3f744c
3e0ad344
3c91c16d
bdcdd9fa
bd776fe8
3e076ec5
be03046e
3e8d3238
bd1401fa
bcc6298c
3dfa48c4
3e807597
bdbb7c35
3d048eaa
be04bdc0
3d8d14e8
3e8ddf50
3e43a62c
be388761
3e365c70
bba630c6
3d83b611
bd3bbb8a
3e8bc91a
bd6e6974
3e3a547a
3ca6de04
bbf01e00
3ec26323
3dc641e5
be330bb7
3c98a169
3d8230de
3e3d0411
bccbac8f
be479396
3e42a64e
3d42ba47
3e84880c
be6d46af
3d9e851c
be46211f
3e0c21ff
3e21d0a2
bd7ad352
3e48b312
bd7f6ff1
be003c76
3e972654
3dbd4c8b
3e293468
be23f26f
be5047f9
3e2971df
3d46d468
bdd331a2
3e7cbb10
be684695
3e30e68a
be7b73da
3d2c327a
bd2aa493
3d799d63
be2068af
be4e5c86
3b66207b
be82d460
3e6a1c3e
bd9d26af
3e702576
3e53e5eb
bd1fe854
be0c2593
be15bfb4
be650ce8
be4a00b8
3e4208e7
bde30797
3ea55f0c
3dc71bc7
3c9b0b97
be42dc6b
3d5e8522
bcfe9d6c
3e614ca2
3dcce16a
be2a23a2
3dfa7cb8
3cf37e26
3bc4a83f
be0d966e
3e4d4d89
3e94af4f
3e6d7c9f
3d9cacb4
bdf7fcd0
3d8e283f
3ba439af
be8abcef
be7905b9
bcc68d35
3d81fb0b
3df1f0ef
3c1ef2df
bca548a3
3e809c3d
be32db2a
bd9aae34
bdc78900
bc924f7e
3debfb10
b8df6670
3e1d1c19
bda2cd9e
be676840
bec2ab81
3e802cc1
bdc52353
3d5c789f
bda93e7a
3d8ecf20
3e351dc4
3d933a93
bd8bc3ab
3d25c0ce
3dc9dd2d
bea5eb41
38c8d514
3e13e8fa
3e7ef04e
3ddd2e5d
3d982861
bd49badc
bd21cd74
3cc6ac7f
3db8f4ec
3e03e621
bdc97ec1
bbe90d61
be6a3f7d
bdf791df
bcc0c599
3e4c5846
bd2accf6
3c710da3
3e1790d9
3e7b3a25
bdb25f95
be0e6212
be1c4980
3cf630c2
3e68ff0c
3e42fc38
be3f4812
3dda605d
bbd16c0b
3e6116da
bdc50fb6
3d15816e
be007cae
be606929
3e3e6b72
3d08c60a
bdaae46f
3dd22202
bdf44143
bce6127b
bc61e89c
3dc2f439
be329e18
bbab28b5
3d55173c
bce01352
3d96e0f5
3e5535ff
3d10391d
3cd7fd78
bd9017a0
3e4e32f3
bdfaf14b
3e43e3e4
3e4b3b91
be80b87a
be0f4f97
3e8d5b78
bd94a15b
bdebc627
bd97555e
3e7df0b2
3e67c741
3d7f80ef
bbb297d3
3e2ba938
3da86a76
bcb75af4
bc3f5973
3cb2b08b
3cbb5314
bc2ce4c9
be7f0d82
3d883ab8
bd9e336c
bd99fcb8
bc404035
bd9bc3a9
bd8542d7
3d206daa
3e05d61c
bc8e42db
3e5af1a2
be01f162
be223706
3e4b8ae5
3e2c4d6f
3c91c25d
3e484ffb
bd1a3ad6
3c3c99f7
3e098840
3c8d3604
be40dec6
bd053104
be8241f1
be1c86d8
3e4576bf
bc0c1477
3d97709d
3e1fdaf3
bd514fe5
3d0f1a24
3d5fe0c0
3bde6282
3c13ba75
3dd2710a
bdd7529c
be4ff5ec
be68dabd
bd48e881
3d145725
bdabe6ee
be020e5e
3dbd5c6d
3d021737
bce8008d
bdcff338
be266f96
3e43fbc0
3e502240
bdc29840
3e0afadd
b93bb2b5
3d8da714
3dfdb61c
bd58217a
3deb0d11
be0676af
be08c028
3b6dc77c
3e326d91
bd3a20ed
3cc8cb38
bd1670bc
be47da0a
3e2a866f
bc0fef87
bdbd07c9
3c816422
bc7895bb
bc17343c
3d3a84cc
bd17ee4e
3dca7f57
3d90155f
be3aa0e3
3de27bea
bcd167d9
3dacd50c
3e39c1dc
bd18e162
be59ed9d
3d3df965
bd62a09e
bd0427b3
3d7f3005
3e17d4d0
bd2fbda6
3c3e4f9b
bd0f7c2c
3d8d7461
3dcaa141
bda88785
3e2e7940
bdc4f8f7
3e0db3c4
3bb3d03e
be8b1ce6
3e1d9f27
3c94f14d
bd495a9d
3dc65f6c
bab5c7e3
bd092a02
3daf7931
bdd2bd5b
bde3ccf3
3d581979
be0269a3
baa95fec
3e03ef25
bd803d63
be1ce781
3db3a6e3
bd2bed42
3e024339
3c285697
be3676af
be1be9e0
be8a1ae2
3ca38dc2
be1fe4b4
3dee9bf0
3db9dc62
be2cb7b2
3e3c18cc
be2c7033
3e02004e
3cdf5eaf
bd8d49ba
be1cd399
3e57733f
be121d92
3e16f4f6
bdbb6794
bccb42c0
be5fd600
bd86a5e3
3ca8f578
bdb79755
be5061f9
3dbda86f
3d7b571d
3e27aa4d
3e5330fc
bc5a80b3
3e3c45c1
3e836a9f
be88d553
3e97fc63
3e09912f
be1ed367
bdcc2f19
3e165835
3dd7f2ed
3e0599c8
3e12d646
3deaf894
bd2e982c
bdf2eee5
bdb7b8da
3e5e729e
be7d766e
3eaf0cbf
bd8790b5
3e854a21
3e0534eb
bb1eb2e2
bd3e2aa0
3d7c6e8f
3dbab5ac
3e0277e3
be052ea1
3df96fda
be3c7dae
bda4ab38
bcf39800
be40c8b6
3d51421c
bd38f235
3e99fd9f
3e09151a
be2e126c
bd80453c
3e6f1410
3ea2c684
be580d3f
3df1eb61
3d209d9d
3e6c0fa1
bd01315f
3cabde04
bd47d677
be4dc2c9
3d1402e4
3c8c562d
3e2cc698
3d1a90a4
bbbf6717
bd5c45d8
3d8110c1
bd40d3b7
3e475b42
bdca86b1
3e62d681
3e9a8b92
39aee6cc
be90a362
be81de96
be721ecf
3d3faa38
3e0377ea
bd839ffc
3e035fa3
bd687077
bea112f9
be04bbae
3dc067ef
3e84b716
bc4fe43d
bed2bb7a
be184f4e
3eb51529
bed5b0d0
bf0441cf
be83dc33
3e2010b3
be782bc5
3d0b3df3
3e87b0c5
bea8045a
3edbd0f9
3e1f75a8
3e86912e
be10bb3b
3de8609e
3e292b03
bb7fba4e
3f8bc5ab
3ea92547
3e33aea2
be07b158
3e755b59
be5360ce
be03ab37
3e22e988
3e38f6c5
3eb64ab1
be70fa02
3f2852e4
3e8fe7bc
3ebac547
3efdd4ab
3e370ede
3e70e1da
bf1f4856
bec3ce8a
3f0cad97
bf2261ac
3e9a4cc9
be702133
bde94c64
3e9662b5
bd17cdb8
be8dffc6
3e1b9db8
bd5f1551
3db88a40
3edc6c8d
3ed7b320
bf2bfe13
3d9dde22
bd92f8f5
3eebfd02
3eb2596b
3dc985a6
3e102d76
bedf0f42
3e54037c
be98e325
3e4a31be
3c07ecfb
bed0fee1
be7d2f96
3e1b605e
3dae23d0
3e6bae29
3e72f882
3dc8b99a
bf38c654
3db75a33
3d82dc9b
3e410d6e
be96ac85
3cd5ebe7
be464243
be304e45
be690425
3d8f5ec1
3c28869a
bf345bba
be317f04
3ebd026d
3ec647fc
3e7c0622
be59a8d2
3de4b1c4
3e0f74a6
3e348050
bd6c5438
3ea0e8a1
bebbb36b
be83a67c
3e8326f3
bd9c0fde
3e0f7ff0
bed1cdc6
be71c204
becc947d
be878cb7
3e32c05d
3c855195
be0a1d18
3e917816
bd0e6549
be00bf20
3e2eb612
bd1db58f
3de9441c
bb86fdfa
bdc1f95b
be48ab07
3e94a86b
bd33811a
3ee83784
3eea5905
3e17a9e2
3ddabc9a
3b55b12f
bd3742da
3e0b6710
3da5cda9
3e9c6b77
bea94783
be486521
3c391557
3c72ff3d
3ead426b
3e1cb4e0
3e42d3a0
3dd9742f
3e7e1d16
3e2ef14e
3d0e6500
beb25525
be66c206
be3f2713
bea1cc0d
bde1d045
3decba67
3edd65d5
bed6e797
be09f963
3e5b413b
3e52bf67
be75d0cf
bd86695b
bda62b3a
bd580a97
be154195
be3d842a
be008218
3e160911
be03adde
3eb51ee5
3e80d8ad
bd22f19c
bf1788eb
3e6e4e18
3dd9264f
b8bf622d
3e8aac5e
3dc58fa0
3d89cbb9
bd706ede
3f2920ff
3e643796
be0c645b
bd3e6c4d
3ebebe14
bd48ec5d
3e68f3ac
3ddd5a96
3e28cc5d
bd5993a1
bcc78d55
bf63d9e3
bcffb4d2
3de2f349
bdc6159d
beabe5d8
3e3adf12
bd9248f5
3e74f5e8
3e74ca4d
bb701e72
bf5c2386
be81e6be
3dc091de
bf258f23
3b1b10ab
3e7680f1
beda7d49
befe42ad
3ec49f7f
becfb755
be352bca
bf117be1
bdb1febd
beb78a1e
be61d797
3ee98244
3e4ba021
3e16eea9
3cab6b7d
befa12cc
3e1615f2
bdcdb40e
be22adcc
bdfe1d73
3f0d1c0b
be9b50aa
bd7d1ce0
3ee560e7
be57868d
bbf01779
3eb18952
3dfe3dbb
be4d6ffb
bd16c815
3ee9d4f5
3e011401
bed7d2e6
39c18c42
bd326b1c
bd3133a2
be84142e
be8fae3d
3caf44a7
bdb94b1c
3e6d4ee8
be170837
be84b3df
3e998a60
bd334b11
bd1ea331
3da8c2ce
3e102a66
3c543431
3e098c01
bf007d43
3e873b92
3ebe86ef
bdfa57e0
3caa42e0
3d6602b8
3e74f59d
3e9ea625
3e9b904f
3e5367ac
be020df2
bdb67760
bee8d9c8
be7bd492
3da7f6ca
3dd76633
be13be45
bdebab72
bf421830
bedad9c1
bea0b0ef
bea06881
beae52d5
be0e6ada
be7ff7c9
bedb92c8
3e918dc4
bdc95ccd
3ec89bb8
3ed7f4f1
bd480ce4
be349fa1
bf71b85c
3e786ce9
3db32423
3ea6fc2e
3e6bc4af
bee0d624
be3e158b
be403acc
3dd200d7
3e4f2204
3d569495
bcdde055
be84f51a
bf016d69
be1b15b7
3e8b4ee6
3ee87555
be55f609
3e3bf011
bef6035a
beeec39d
3e912d55
be2034ce
3ea58ef4
be63614d
bdd21f1c
3e8ca2b7
bd52f234
3ea81701
3e27c1ec
3e374286
be483074
be1d1805
be255cf4
3f10f6a1
be87f3f4
3e9a8cb8
bfac0999
bdace129
3d9006ce
3e283432
be12e041
be8ad185
be6eedd6
bea90b75
3e3f8bb6
be914414
bee9b5a7
bf453c71
bcb5e8e8
beb3bcf5
be81064b
3e76dfb2
be47a6fe
be5ffe4b
3e976099
be0b5ed3
3dea6e50
bea947e3
beb003d8
be990bdb
3e514c15
3e9f16b8
be8956ca
be33811e
3eb6bc6d
3e69b2ee
3d2daa1a
3e5b82a8
be19ef80
3ec820a7
be1feb7f
3e390d1b
3b7e2221
be3b0444
3e9b03c6
bf399c1f
3da94006
3e639224
3ea495ad
3e8c02a7
3cb7d838
bef11563
be9e65db
3d9bf418
3ec313ed
bd993061
3eefe545
bd2f232b
be6f0a15
3ed6ab2e
bea5d9e9
3e23e4a6
3dae2e69
3e6cc4af
be3338e6
3e2804c9
beab4690
be1afe7b
bdfab73a
3ea592f6
bef4e3a8
3ee6eaae
3e251db5
3b6b6833
bdf2dc89
be1b33c4
3dbcf23c
3ee0e3f0
bec1d92a
3c1dea00
3daa1932
3e49d3ce
3eacd442
bdc57dac
3e49d4d8
3dcae824
bd902831
beeb9842
be47ea1a
3e6a35d8
be75beb6
3df29699
be94dd61
bcec5255
be651c0e
3d6f7ab2
bd7511ee
bdf1080e
3e9eea4b
3ed05e41
3e5786ac
bde58268
beb07138
3dc9df62
3ce99792
3e85ee84
3e0d3f5a
be8374df
3d92eaee
3e06452a
3e8b87fd
3e0d20e0
3e91bde3
3d9ff500
bd9b44d2
bded9b95
3ea7fbee
be397992
bdf519e6
bdbfb988
3e197e69
bec39060
bcb15510
3c9bcd76
be1cd744
be6ce148
be68e86f
be812abd
be9029f5
3dc574a0
3de7e045
bf117beb
3d3c81b9
be8a4195
3e9d1c98
bcda091d
3e19ef6f
bdd25a86
bf20b764
be1c4d01
be8fc57e
3f082fb6
be5d39e1
bdd0f8d8
be5b6a85
bd296069
3dd7814b
be94377e
3eaea0c7
be5c926f
3e45f58d
bde38874
bafe7a41
3e42a7ba
3df42ba4
be260dba
3e87190b
be2d2a86
3cabed11
be1b9794
3d865893
bee449d3
bd6c3fb2
3e1e0aa1
beb85e50
3e727992
3e77c8c2
3ee77acd
bdb43ed8
bd26aa08
be074915
3e9e9c38
3e716861
3f01e048
bed498f5
3d489279
3e868538
bcbdfe84
3e341ea4
3ed5a230
beb7e1d7
3e1cc2d9
3d59ad82
bdc48b92
bd75b438
be3c8a9f
bed43f82
3eaf0480
3df1a01c
3efc5d28
3e32ea25
3e3d23c1
be75ab37
be1a85d7
3e67fe17
3de8caeb
beb9fccf
3e4f9cc9
3dc10e6c
be01c298
3ec1332f
bee33622
3cc55c28
3d26767a
3e5bec63
3dcbd3bf
3e63b605
3e8e9fd3
be552d16
3edee554
bca8a73b
bd2a8f41
3e26205e
3dc17e96
3eaaeeb4
be5a9869
bdef8924
bda049ff
bdf0c7b2
be1abead
be9e482a
3e119fd1
3ed7d06c
be32e0f5
3d113f16
bd0db9a5
3dc78413
3e1b222d
3e08a084
be2bce83
3e22fd87
3e71e627
3dcd2841
3d294fa2
3e44693a
be089440
3e064ad9
bef6009a
bd0ffc9a
be8daf97
3e909c94
be16a02c
bea5036b
bf106cad
be4ae990
3ea5be19
3e9e591f
bdfde3bc
3eac5ce5
be8c37a4
be52be7f
3eda6ee4
be568d27
be40f46f
3e6046d4
bca203ae
3e954cb3
3f44e8cc
be89b8f3
3ea2e94a
3e39c6be
3e14c472
3e27b13f
3df1f5fe
bedf94cf
3e9923da
3e39e6e2
3ec84929
3eb4316c
bc8cd5c2
be8eb150
3e586cd4
3d910f7b
3e78ba52
bee2d45a
be02d15c
be80e914
be8d2a74
bd16caf6
3d2aff72
be56bd7f
be4d64fb
be7f6c26
bd63d639
bdb762e9
3ec0dfbe
be63cf10
3e0108a3
bb90f74e
bdae06ac
3d926a19
3f84241e
be76b2e7
3eaf3eea
bed3820c
be1015a9
3cda2d5e
3eb0aeba
3e55bc6d
3ea02ea6
be45447e
be16acb5
bdaef017
3d21ec97
3d3173bd
3e8e431d
3df8f620
beb7607d
bd3b8a15
beb9f963
bd4b860e
bf22670d
3ece11fa
be505a00
3d85d128
bde2fb8d
bd6662ea
be0876f8
bc50709f
3e792bb4
be4b9afe
bede01f6
3d95f0c7
3e1081e8
bf3420c3
be6b6fd9
be768267
3d913e1f
be5b7599
bdae8145
3ef43a14
befa68f4
3eb87d86
bda47183
bd498e21
3e5cf7ec
be91f3ad
3f0f99b5
bec5de2c
3dd64519
be751e04
bd4617f5
3e852e79
3ca81d0e
3ef0eff3
bda62d88
3e821bc7
3fb882e4
3e1b0574
be1f7286
3f499b6f
3e335855
be116e0c
3d75b3ba
3ea72d69
be285280
3df8ae59
3d4abc0f
bd8b5607
bf34c00f
bf0f868d
3d721d24
3f00d494
bd72cef6
3eab1fcd
bc7e1fff
3cf875b3
3ee95478
bdff477a
3e95c161
3e39feff
3f08f51b
3dddb6bb
bc480cbd
be616ba3
3e76d3fa
be9c9b28
3e0cf5a6
bbd46a61
3ced5654
3e8d5d4b
3dabaa80
bd353e06
3e864614
bde215a2
be5aa957
be509d15
3ca77bc5
3c422c3d
bea18400
3f33b389
3e685a97
be9f3d1b
3e7dccb1
bda9a854
3e863411
bf026303
bed77441
beabe9a2
be0cb6e9
3da6bd51
bdaea5d3
3d98334a
3ddf0eb2
bf235450
3e6fe3bd
3e40b480
3e5104e3
3e8af7b5
be7ddb2e
be4c2b5e
beb530d0
3e317196
be43fbfc
3e8e8318
3dbeb03a
3e37a68d
3e463fe9
3e36a861
bf1a5a69
3e67edb6
3e1818ab
3e4474c0
be4c9f14
3ec4d83c
be9bbdbd
be1c0359
be44622a
be10a5ee
3e6ffbb4
3e7e916d
beb7c46b
be40872e
3d871a99
be084175
3ed0d2a5
3e9bfac4
beca6ebf
bf1a062e
3e3f9e91
be1afee6
3da113bd
3e398bfa
bef5e8e9
3da4441c
3d7fbd4f
3d8d4f08
3e946c28
3cd43036
bdb38887
bdb93d29
be29be61
3eb2986b
bde81bd3
be017a9a
3e885e3d
3d72d1c6
bee95904
bda258a3
bdcd3764
3df79f97
3dd3d618
3d5cb018
3e90eed4
be8c692c
3ed61424
3e08a565
bed14039
beafa371
be805976
3d6d083a
be825744
3e0a0738
3e7c20aa
be95db64
bc84d137
be629d57
bd316356
bf16b51f
be9d2ae3
be951453
be898958
be0b0192
bd47dd11
be0a5a0d
bd032780
bf13dabe
bceba364
bdc4263e
be9acdc0
be1abf28
bec797a0
be141a3e
3e94f08d
3e194bda
3d4462ec
be76acc1
bf5a6409
3e55b790
3d9a3e9f
3da80166
bebc9908
3f27d620
be4eee48
3e8cb16a
befafdb1
3e2bd83a
be15b957
3daa0335
3e77e9df
3dc4fae0
3d197478
3e960c4a
3ea434e1
3eb1b557
3f067abd
3f104dac
3ec7e3d7
3baedb5f
3d00d4ac
3dcfe665
3db02ce2
bf079c79
3ea04c2a
bcbbe1da
bd00c754
bf033917
3dd748b8
3ddde872
3e198c84
bdd1632b
bedec4c1
3d45d695
beddc82f
bf4c903f
bf15fea5
be5b7f5b
be4ab3ba
bea4f25f
3dbb615b
3e7e9cf3
bd0bbc19
be39f3a3
3e81eab9
be3e969d
bfb8c344
3e171303
3ec7a29d
3eaa0305
bee62e80
3d977094
bc0c7692
bd89e303
3eaf2eb0
3c600d4c
bde0a6d5
3f26a27a
3ad7ee9c
bb277c0a
be689745
3d3b87d0
3e9f7015
be263402
3e8985c7
3d3e307f
3e44bef1
be49d067
3c632d94
be957e51
3e882f5b
3e295ff3
3eeac8ad
be1965d0
3e486b3e
be2ee389
3e0547cd
be2b17ce
be5c3ea5
bdc96cbe
bec946e5
3e8d2f99
3e0bbc92
bf154347
3c861b85
bebbd99e
bed300f9
3eb6e2b1
beba1965
3e2a6f11
3e7765d5
3dff92c4
bd0ae295
3de5adb2
3f3973be
3d1723a2
3d947fa5
3e6e1140
3e6d184b
3e945c7d
bd8a5062
be9f4086
bed3c2c6
3d8bdcc9
be4416f9
3d35295a
bbb0aa4f
bef34670
be45779d
3bb5cad6
3e3c313d
3c92ac2d
bbc8a816
bec1d931
beaf354e
bddf80a7
be44673c
3dbcb017
3dafdb48
3a6cedfb
be32bdeb
bdc9b647
3e7de55e
bf7c4119
be38575e
bdc3d847
be28b1a2
be01fad7
3e307cb7
3e8b7af2
3ce53521
bf6a736f
3e574f19
bef7aebb
bebd442e
bd073a8b
3e815eeb
3e5f8fbf
3e3c6e7f
bde44ccf
bea5d6b9
3e6abd43
bf8724b5
3e99c4f7
3eeb5ee3
bd168e9d
be104426
3d964ef3
3d085929
3e518620
be8cda46
be4cad45
beee1554
be3a80dc
bdc5ae43
be229047
bc550519
be58c409
3ec2cc94
bd023af7
bee9c5e7
3e8cfa85
be43bd5b
bd0ae1c6
3e022919
3e8185bc
3e629ae6
be4a7588
be1a7923
be09b2f7
beaf8d39
3ece1017
bac4e268
3e984c15
be0c994c
be78a284
be9954cf
3ef137a2
be483a9d
be9935e0
3ca07459
3ea0c60a
be8197e6
bec57ba5
bdf323d0
3e1e1f98
3e830394
bdd7a8b0
bda412c8
be1daff2
bd85bf3a
3e16f2b4
bd049375
3e80c631
3e7344d2
3ed82156
3c34a926
be7ea946
3e3b76dd
3dd5afd3
3ea1cd06
bf12c5fd
3eb8e157
3db8571b
be259ac9
3e74ded4
bf016939
3e563d5e
be38768c
3e1f4193
be707528
3e6dc2cb
3c083104
3d90e640
3ea39d77
bdfde1c8
3e1b91ba
be9a3272
beb97dcb
beb9ff8b
3d09791b
3d788fc9
3dda8f7f
be0f7771
be4543f5
3e8cd0c4
be041785
be6eb076
3d6523e9
3e854d5e
bdec0e1b
be1d8042
3dcb37e2
3d921c11
3ed87f6a
be9e8897
3c73627d
bec29e3d
bbbc2a47
bdab5d76
be738752
3e1d2231
3c9fa556
3ea19d4b
3e5c6a4a
bd3936d6
3e20d0df
bd77da45
3e1bf2e2
3e0c6bcf
3dad729b
3d1efa19
be3cb1fc
be3009ca
beef1167
3deb8ea4
bdd934af
be990e54
3e95a975
be19ac1d
3e903c8f
be877aa5
be3f896e
bd2aa735
3b75a9b5
3d19aad3
3e48fec5
3ec480eb
3df22d61
be0fc99c
3df3d70a
be378092
bdaceb67
3dd5c0fa
bd3f749b
bd9fbe7b
bc991051
3df3ba5b
be067e1b
be284851
bd9899fe
be3c2c79
bd6d2eb6
bc21f3b2
3e900bbb
bee17456
bdc1fdcc
beaca254
3e37aa95
be713ab1
be9313cc
bf1d10d6
3c612859
bea427fc
3f0d12cd
3c8dc88f
3d246a00
bea58533
3d4390ed
3f057026
3e93b624
bdc29a4b
bed64b80
bea651ff
be9ce607
3e8462d3
3ec6b606
3de9e304
be84456a
3c43b1b4
be71c060
3c7730fc
3d06f771
bd091831
bdef639e
3f38c77b
be2c54d1
bd7e8acf
be2ea855
beb6fa64
3db60a62
3eaa584d
bd030cbf
3eff44fa
3da9eed3
3c48f68e
3e6e482f
be59937f
3e34743f
beae83b1
bc79d610
be555626
be332914
3da7c0ec
3f680f2a
be77dca5
be1eb7b8
3e2ad5ee
3daa6e0b
be2ec436
3e0d83e2
be4320d6
3e50448d
3e900e6d
3f5835a3
3dc35e04
bf17f325
3de04597
3e5f19d7
be5ef8f8
3e974095
be7e2bce
3edca915
3e06d1ba
3ecdc90c
bc3305ba
bdf3dc7c
3e18beb5
3d21be23
be06f712
bedfc5d9
3ecdaf05
bdbc6e64
3eea17cc
3e1be17e
bd811a72
bd886d6c
be27de5c
bc104d0b
3dfc8e07
3e862e1d
3f1eed5c
3e077dfa
be9b2e50
3e3b0c7e
3e0d7627
be8eb757
bf0ad2f2
bf0e4991
bed87d49
be45c68b
bea84b09
3d28d2dc
3e73c21b
bb35a196
3d3f820b
be353c23
be5c59f5
3e8f59f7
bd060971
bd30cec6
be962632
be9a5a11
3eb7b818
3ec6c7d0
bdcf1824
bed48835
bded588b
be1edc6b
bea56763
3e34f814
3ebabf34
be9ddf5e
be0b0bcf
bc6cc725
3e55d1fe
3e62d8c9
be266932
3eb2db45
be8a1169
3eb8585f
bf3b3c28
be1e6f33
3dede885
bea51c3e
3ed45f56
3d8e7e8e
3dce7b0b
be7bce38
be829a7d
3e0cce9b
3e1a84e2
3df6c048
3e9cec20
befa94e8
be073cbf
3e233775
bea10ee4
3dfc578a
be4f10a7
bf98a564
3d9bc097
3a191db8
bdff3a28
3e3d8e90
3e52e458
3eb1f30b
3e6181aa
3d3a296c
3e87ddfd
be979f26
bec41642
be2bf45a
3edeac83
3e251967
3e081fe3
3efbc8bf
be70d26b
3eda6506
3ec9b3e5
3ef1a726
bedc8b29
3e1b16d2
3c22d193
bd093256
3ea88a3a
3d8fcadf
3e465e97
be1c8625
3d8b8d09
3eb4a9e1
3e5ef1ba
be2afdc5
3e97e84b
be8b56ed
3e0e069e
3ea39c12
3e344468
beb0d4a4
3df92fb7
3efa7d54
be857d4e
becbfaf5
3a1c12f5
3e5fcd25
bee6c471
bea31cce
be96ec5b
bdb93555
3e77e934
be87a7d8
3e4e2c69
3ed244e2
3e2cfe89
bd5511be
be3cabd4
3d27cee0
be072dad
3e9ce359
be35b590
3eaed701
bf1b9333
bdb2e276
3d945ff4
bec8cad0
bdd8b7aa
3e876653
3e630ce2
3e180a8d
be0fcff7
bb3c00e9
3e783858
bd2cd0c8
bdf0c02d
3d7fd457
be60bc9e
3ed9ab5b
bf4a733f
3e820491
be88d6b7
bc8f7c06
3e5a54d5
be5f7b04
be15a15a
bbf3188c
becfa976
be73fd56
3e292176
be62ea1f
3c8e9377
3b4baf71
bd3cc5c2
3d374a8c
bcb1c47b
3d0725c6
beb16ab8
bfacf1b3
bd6806aa
3c34f7b0
3e978d19
beda11eb
3f129994
be1a661d
3e2884d6
beb223c2
be36604f
bf01b293
be31a0e4
be1f8c3c
3d9ea526
3d7aafcc
3ea33f60
3ec53cfd
bddcb04c
3f015928
bf217872
bcaac88b
be9d4c7d
beb611fd
be3cc83d
be946552
3eed28ab
bd6534b8
3de58fe0
3f32838a
3e4891d4
3e89b64b
beb079aa
be8c7be1
3c6a106e
3fab2f86
bd79cd69
3ea38672
beae2691
be21cd85
3e088807
3c99829e
be47ef6f
3d0a925f
be0a1329
bf174523
be82a7d5
3dc143ae
be85304c
bec6e841
3ed4ee3f
bdbe2a5a
be1d4c46
3e49571e
bd8216cf
bf1059e5
3ec58759
bca69992
bd0bf810
be2052c2
3e94c357
3ed2b563
3e8c17d7
bdb8c28e
be240f31
bd7b7363
3dd0a1c6
bdef68ff
3f00fb94
be7c27fb
3e8c8698
3e8c9f1f
3e46790d
3f0c6441
bf2a9f26
3eaf6f44
bf047066
bd50a6b0
bf4047c2
3a70b10a
3df0b3f4
be13a27a
3d092f39
bf3c2a1d
3de8bec9
be947206
beaac34c
3d67a552
bd7b01d5
3c52f700
bed3b545
be9605ea
3ed12253
3f01c963
3d631a7e
3ad5bacc
be2ed8df
3f3fb421
bea4a2dd
bccbcf13
be4c93ec
beae7023
bea16341
3f3adace
be6e2335
be43b932
bd3bcdd2
be616ca1
3ca12faf
bea40a71
bebb3897
bdbd5cb9
3de588c6
3f0ab63f
bf19a4e0
3be8036b
be47e64d
be4deea5
be48bf3f
beacdf13
3cc32f17
be0bff90
3ed25c76
bd9b14a8
3e1f2672
3eff5b35
3eb4781c
3e578c47
be7347a9
bdf9caf2
bdcf5756
3ed5aaa7
3ebda334
bd442833
beaeccde
3e36567d
be4f98f3
3ec355bf
be78f74c
3e72516d
3e07f08c
bed0816c
3ebdd774
bea5158f
bd1934eb
3f0aab7d
3dd7642b
bc9a870e
3b25e92e
3ea09db5
3e0f42f0
be4190b6
bd4e4980
be186602
3eeb4934
3e1bb5e4
3b37a44d
3e2cd01f
3e55d920
bec4d597
3d4df626
3eea4cf7
3d0cebde
be13e5cd
be79e1c0
be85ba2f
3e833085
3e29e24c
3d469cd3
3e1765d1
bdb03a45
be661669
bd954c37
bdbfa705
3e0208e9
be98cb3f
be5aa899
3d60684f
bdc8b56c
3f179f77
3bc66c30
3e7fd059
bd1666f4
3cd1288f
bdf08397
3dfe6b13
bea55216
3ea27667
bd97a854
3ea24d91
3e2a7c1d
bd3abc9b
bed46dd7
bf09d84a
be7dccc4
be43cddf
3e41ff56
3eca5cfd
beb368f6
3eb4e7b3
3e0bd1ce
bcba40a2
be1e7021
be65bc85
3ef97ed3
3ebcb647
3e4fb9c9
bde1aa0a
bc0d7ecc
3ee38d24
3e91985d
3e2c7fb5
bd9c7932
bae3896a
bde61a78
be9c8d79
bdf63237
b9b4b752
3c91e762
3ec92190
be72c34f
3e6c8756
be95e101
bdf6b79c
bd1d7a3b
beab8e3c
3e4ca23b
3dd55535
3e99675c
be117b0c
3ef0a488
3e17ae38
3e2b9100
bb9ffca3
be528e4b
3e87c3d1
3e431f77
3d99dcdd
3c29e3ff
bdd24d49
3ea9ecd7
3f07cbb1
be1acfb2
bd1d7400
3e1bdc5d
3e4df058
3e2827a2
3e2bd06a
3e60345c
be8f27f7
3b8b2a4f
bceee818
beac11a6
3d7d3539
be8edb97
3d0d5144
be9dbac8
be044bc0
3e26b6b9
be906243
bdcc4711
3e5ed1c3
3e2261a1
3e75c2ed
3d6e0870
be2607cd
bc1eba2e
bdcdb41e
3e789517
bed09536
be91ced8
3e885879
3d179db0
bdbbd9d5
bd8aff9a
3f203f7b
be2929d2
be7bd68b
bdba6caf
3e45f7b5
3d88a54e
3e50b6cd
bea4ba4c
3e16ea93
3e90060d
bdab8ef4
3e66a8f2
3deb7e81
bea4d8d0
bf7a1753
3e3eeb73
3e0f97c6
3ef3845b
3e92211f
3e7be382
3eefa922
be60fa2f
3e74feb8
3dd94c41
beb5e24a
be2d0c62
3eaa0a50
bc82077c
3e93f45e
3ccf6768
beaf78f1
3c9fe96b
bedd761a
3e11b8d3
3dca1d9b
bdd0105f
3e03fcc2
bcc8ff0f
be0f3651
be302673
3d0214b2
be3a03c5
3e596b2e
3f709ab1
3e3ffbd2
bd9dc9ca
be25935e
be8f301b
bee666ca
3ea11877
bd318fad
bed86a5c
3ea3275d
3eb9d957
3e98e477
be1cae3a
be8a6aa9
be576d4b
3e31da7d
bea81fac
3d13e33d
3eb46ecc
3f6fb6b5
3c131f16
be2ac615
bdffb921
3e59c448
3dcd3baf
3edc9e63
3e230408
3e84e5bd
3e5f1f5b
3d276682
3f230460
becaf448
beb75058
3e4eb0e3
bc9b204c
bdb59fea
bdb9fed8
3edee0bd
be9c340c
3e924e51
bdce5511
be241def
be3a3554
3c8d308d
3e4a716e
3d549acf
3d7ab253
3e28ace6
3e13e03a
3e9c2e5f
3e79d31c
becc1fbe
bd0487c3
3ee999db
be74d72e
be02201b
ba2db3ec
be2aa048
be30ea2d
bd9f5542
be27c074
bd605c6a
3e4eb030
be44327d
be7f2ce9
be592448
3df31408
be6136bc
be3ed6a3
3de8fb85
be5c8137
3cbd8406
3e9befbb
be4a620a
be39628b
bd66f712
bd8db89e
bebf495c
3cf2a363
3d254637
bc435e80
3da09b05
3e870928
3e8bb573
3ea2b524
3e41352e
3ec527bf
becfdb88
be4d7865
be50d714
be7020fb
3dd2264f
be083577
3e7b98ff
bdc8a07d
bb9521ef
bea59fb2
3ea86e69
bd8ea459
beb875b3
3e5bd120
3f1115a2
3e3379ae
bd5f9808
bcd1856b
3cd62606
bda17e58
be187ba6
3e01ac2b
bee8c402
3d90d19e
3dadac76
3ddd41b8
3d5fc234
bdde301a
3ee639f2
3e198472
be2d43d0
be9d8686
be95be72
be8ca5d1
3ec53bc1
3e339aca
bde47e94
3d9d9f3b
be0aec28
be141e46
3e1a38bf
bce1fa0b
3e450605
be68b163
bc01e742
beb99fd5
3e8e209d
3d90bbbd
3f407dd5
bddd2bac
be4dd54d
be3429ef
beae8037
be8376b2
3babfb52
bdb4332e
bed270e7
3eb0ec93
3e3e32b5
3e71e135
3deeba9e
be811558
3eb1af56
beacc8c7
3dc29ee8
3f8df217
be666dec
3e1d1932
be8bef4f
becff06b
be38c14b
bed1e53f
3e8d933b
bdde6af5
3e9e8a24
beabca25
be387907
be36c5dc
bee36a2c
bf036407
3e1057fc
bf5945c0
3ec74361
bea740b6
3f1c65b5
be0a11e7
3ee41852
bcc8d1a0
3dbf2526
bd484883
bec2f48b
3d6fdad1
bf4a38d5
3d7e692c
3ed97fb5
bf16c89b
3dcd3600
bead878b
bd927eaa
be8a03a2
be4b5973
3cd82a2f
bec3c7ae
3ea8b2df
3d5c9ac7
3df35a53
3dae54c1
be38d977
3ed3983f
bebf7e4d
bebea6aa
be1a4556
be541dd3
bf1a28e9
be919030
3e9392a9
3cab8fcf
b9f217fb
3f5ba5eb
3c7849fd
3e23077d
3ef51209
3e64be4d
bb98f92d
3e41843e
3cb3190b
bd4a9888
3d5473fb
bea6ca8f
bf24f8d2
bec7693a
be90f0f0
3f1f14c6
3dd5d3e4
3d5e1d81
bc98fcbf
be04ba19
3ec69616
be8f8466
be2dec28
bed759ff
3c99c15c
3e8b6c31
be161db5
3ed08b54
3d28b6f2
3ea2aba2
be3d60b9
be514089
bd626543
bec33ee2
3d1aca02
bdb51346
3ed5e3f5
bdcc101e
3e1aa73a
3e0ae128
3e6180ca
3ecc7315
bcbb6eb0
bc712bfb
bf10ad07
bdb588e1
3ed59de9
be87ebef
beb2157e
3ecf8917
be04d3ad
be9a27ad
be9c3245
3d92ad64
bea11603
bf08394f
3ca08213
3e1dba72
3d4cd74f
3ec9789c
be4eea64
beb6a05e
3d1d7e79
3e85a07f
3e0bdcda
be41dc17
bb5a4a5c
3b627a38
be4aafa8
bc60d4b9
3ebd01de
3eb6a679
3e9e10f4
3e294c6d
bd94156d
bf07b14f
3d063d8c
be0066ba
3e2a1d8b
3e96437d
3c8b685a
bed3c620
3de9bfc9
3e79ae00
3e97df46
bd9dec0b
bde05ae3
3ea5f170
be5f5cef
3f3bc8f2
3ebf0e33
bec7c776
bf81e1a3
3b600ecd
bf48726c
bf050943
3e86512d
3cd44685
3e44efb8
3f006fbe
3baa0ee4
3dbe1081
be93e1a0
3eb95c8e
3f05a77c
3f2148b5
bd3f1e9a
3ca3df76
3f187de2
bc04f4f6
3ec67b37
be467758
3d38c4e4
3f22fe46
bc5d1bb1
3eeaa781
3e8a528b
3e08763a
beb4a3a3
beae5c42
3ed20310
3e685373
3dacd55a
3d21a3a0
3de8137b
be419ee9
be8cab71
3e32b958
bec656c6
3e52eb8b
3e8955d2
bd4363ba
3e88efba
3e42ba7a
bdb7070c
bd6ba3a0
3cf778aa
bf24dc3a
be949658
bdb23a0d
3f466434
3e98219b
3d1d7744
3e506f34
bdc4b8c3
bede1996
3daa9f34
3e0ccb42
be349408
bdb31b58
3efe54e4
3f59a87e
be9ccf03
be16e021
be13f157
3d99ae5c
bee8d64c
bd21b423
bee386d2
bded658b
bd55717d
3e99740a
bf219f16
bec8d3ef
3eb45539
3e878f2c
3e752214
bed39b0f
3da71b17
3d8de149
be571714
be5c7429
3e084503
bdbc3e21
bd4ff373
bea43e35
be873cd9
3d040106
3e7d003b
3e992b75
3d2c8c9a
be218705
be40c406
3ed5bf99
beaa495f
3e05ee77
3ddd140c
bd661751
3eb72fb8
bbb6aa1c
be9f7b8b
3ec25a76
bdebc7d1
3da47892
be0c085a
3e78f94f
3de0dc12
bc52f988
bc50f0b8
3eeeb888
3e582bd8
bed4a6e2
3e85a8ba
3ee4ed41
3e92e0eb
bee88e9c
be5d1820
3e056485
be1865db
3e16380f
bdef1f2a
bebc7d0c
3f27d514
bda51fe1
be96d002
3e3dcae9
3e8faa90
3e4f34c0
be446030
be3bdb75
3e1592a5
3eabb51f
bdd0bd0d
bece9cb5
3d4bffd7
bd69c2a7
3d84941a
3d8d5206
3f215f9f
be3a4762
3e03c262
3e2342de
bea50eb9
beae05dd
3ba3008e
bb616479
3ebf19fc
bd4d5629
bea94171
3eb3cd31
3e923854
3d30f287
be97da8b
beba3572
3ea66fea
bdd007e9
bbee3fbf
3f5fef49
bde82539
be8cdc87
3d69cfdd
be99047d
3e23cf75
bc2e3367
be2b87a0
bea1312e
3e83ebdb
3e8fc076
3e0ed537
beac6e18
be1bfff2
3d0fc4db
3e17defe
be2a4565
bf1dae91
3d62ee92
bedcdc11
3d832ebf
3d06f10c
3e51b16a
3d648aae
be40cc98
3f11f89c
bd8b21ae
3d8b86c0
3e2a01e7
3f3d0ad4
bd5c9662
3e4790f8
be836fbf
be546401
3f90addd
3ea4df22
3e2f36f1
be282b18
bde46eee
bf00cae5
be170dfb
be699dd1
3e07c9e7
beed9c56
bf211c8e
be9038af
be9e7a21
bdb43561
bca7066e
3e7b5fdf
be2b020f
bedfed5a
bdd6f6ba
be563f36
bea33231
bd5f6b5f
be766d56
3e3f41fe
be3a6be0
3e4ba132
be51ceab
bdc3e931
bbd3ffc4
bcd395b0
3f05784f
3e0cb504
bd82bcd6
be81c144
bddd846c
3dfc5ec3
3ebc7496
3e77ae47
3def92d4
beedda7e
be8c1ebd
be85d93b
3d86e289
3f5baf0a
be8d8e15
3e874b7a
be0dd43d
3c0adac2
bea2c395
3e4676ef
3e3ac3ff
bd70df4c
3d49098f
3e5bf03a
bdbda7d4
3e5faa9f
bd519165
be89cbda
bf099799
3e87ebb6
3d228b68
3e1a1d13
3f55cb9f
3dabc65d
be1ef4dc
bec97409
be907ca6
be37dab7
3e935e76
3da89788
be376bdb
be1fd6f6
3e1c2aa1
be2341a7
bec5adae
bf040d92
3e42f544
3da9debb
3d201eda
be5e54a8
3d38a383
3ea1ff01
3f376ae3
3da1096d
3e760cad
be0e8a81
be897e9c
be8668af
3e0e9f42
be5394bd
be666400
3e429c05
bde4c4c3
bd464fee
bec50fee
3e23fc3c
be965fcb
3e887aae
3eabe660
be3cf2a2
be040fd0
3ebe2f01
3eb9fef0
beb65af5
be2d589a
bcca1e90
3def269b
be6c62b8
be9130e8
3e225e54
3eea350b
becd5ef9
be4609da
be547eff
3ed3af33
bf3b29d6
3e58edf7
be62e3d1
3f03b6db
3d387106
3e4563ec
bec00c0e
3d446358
bd2d228f
3e0f35a2
3d1a8b21
bce47f4c
bcb56b44
be60d527
bdca3e7d
bf23beda
3e2fd8b2
be8e9cbb
3d4bba2e
3d56a742
bec5404f
3ead11d1
be6c5e35
3d820227
3eaa3b1e
be3b365b
3c07f016
bca5505d
bdf8f4b2
3dc9fdf6
bee4589d
be3740ce
3f37befc
3c52e170
3de8cbc3
3e19c276
bdf7578a
be64ffab
3e4bd0c6
be8e5988
beca7008
bd460f04
beaef535
bf51e4a6
be9091b0
beab1c59
bebc2986
beb29b40
3d8bc33f
be2d9dfa
bdf60c1d
3e2f1db1
bec4ef5e
bd5006b4
bdfbcc2f
bd78a7a0
3e10ee16
3debec4c
3d14eea4
bdaf75f9
3a159c50
bd2f3f80
3e7fe55e
3d4745fa
3d3f62dd
bcc92cc8
bdab6c62
bd3f9638
3d2708a7
bd644692
3d399ec0
3d441aff
3e20fc25
3b53bdbf
3dedff3b
3c12a0d2
bdafa994
3dc3d980
3e186b58
3e3130de
3ea40978
3cc9da6c
3de0d335
3de64716
bd130cca
bcaaac2e
3e7727c8
3df281ec
bd8cce9b
3b3f82b7
3e2fffbf
3ee6b083
bd29efaa
bcfe84a0
3e133ef7
3d293d12
bdf80857
bd90c155
bdfe83e9
be1fa93b
3db53bf2
3e6a80ea
3d2272cf
3dc51c88
3e876201
3e3fddb7
be8734d5
be18c38c
bc11f530
be2e4b39
3e318b02
3e2594fe
3df96578
3cc74f00
3e3a473f
bd4de6de
3acb96c9
bdeeac7f
bc9ac47c
bcf1c926
3e5853c9
3e4fcae8
3e903186
be3ea36e
3e62c10c
3dc8c611
be29066e
3e0846a8
bdfc3ddc
3eae2cba
3e32ff4d
3d9f4891
3c089cff
3e21370e
bd9a4c5a
3dee9d90
be247208
be139b21
3d727e07
bd240ad7
3dd687d7
bd9bac92
3dd2b21c
3cbf47f0
3e93e35d
3e9cf817
be135c81
be31c9a0
3e3cac97
3da9237a
bd5fa5ee
bdfb1c40
3e7787f2
3de79f97
3d33e407
3cbb162b
3e14227c
3e7bfd58
bdfdeca6
bca74282
3e5424f9
bdb967b9
3e2f66a6
bbe1c9ba
3e9f8264
bdc02b38
bd399165
3dda18d5
3d05492d
bdd3b672
bd493737
bb831f8b
3d1cc483
bbca9309
bbed5639
3dee48ea
bdb036e0
3c322cea
3e05d2ee
be00961a
3e8ca16f
bd764845
3e215b56
3d2a613d
3dacad2b
3d9d7681
bd93e609
3cf9c2b8
bd4c83d1
3dc37cea
be401aa0
bccb995b
bd129cd9
bacb3b71
bd16d63d
be057094
bc6531ce
3da7c1b5
bd9da8c7
3d5c5895
3c83d653
be7f8093
bd6d2332
bcec2bff
3d57cbb5
3ee05dcb
bd02f126
be022dfb
3dcbaf1a
3c67cff7
bcb718c5
be8012ea
be698b67
3e1ff119
3ceeab30
be27ffc6
bd832d9b
bd6d11d6
bb922d40
3c1ae067
3d9b6448
bb910986
bb97c49c
3dd9a6bf
3d9bc649
be62610d
bc8e8a06
bdfd6181
be34b9f2
3e74f9a7
bdab6dc6
be7e146b
bde3cffb
3c5e3fcf
bd969bde
be07587e
bd73937c
bd1642b3
3d0b10f9
bcd50811
3d1fb09e
3d4f2810
bd2120e8
3df86fe9
3d88fc19
3e521357
3d8c3c86
3d067d61
3e082f76
bd74f852
bcfff951
3b750209
3e643d48
3a083827
b8ed9c10
bdfbc7d8
3e1e0dde
3e20d046
be1f7e21
bc0794f0
3d514ff7
3d976fab
3e0d184e
be34718c
3cd13565
bc7bf9be
be19e122
bdf3b641
3e75268a
3d62546b
3b3ac5c1
be12fcba
3e342fd4
be5119f9
3e15a3da
3ce0b761
bd8edf76
3d52f21d
bd77a2ac
3d06eb96
3e7678f0
3dcbdf38
3e530fca
3cd765a6
3dc1cad3
be850ce6
3d91dbd1
3dde525e
bde4468d
3de10606
bd6e5d6a
3dd0c5a2
bdb9dcbf
3dd88a3f
be4c0f65
3e959ca0
3da1d444
3d428185
3daeee3e
3d9d5d0b
bdde84ed
bc1f28a1
3e0e7fd9
bd012484
3dd15ab8
3d9ac36d
bdf5613e
3da4d40d
3d63f040
3d5e591d
3e213caf
3e281f35
bdd54d46
3c5e7631
3e110f4d
bd73e21c
3d05904f
3c17e251
3c8fcd74
3d9e2969
3cde96f7
3c0afd5f
3e80cd5c
bb7cc722
bd213145
3e68c287
3d94b1ce
3e4f408b
3d52a84d
3d57f0bd
bd278212
3d8ca78d
3dcd95af
3de79849
3dffb919
3e226e75
3d2a56a0
be10aef5
3e692736
bd873c75
be403f5b
bd8887fe
3d9eebc9
3d88bcd3
3e92cf3c
3e14c80f
be19d2d8
3d2800cc
bcb0d3ff
3d8cd192
3da05d9c
bd7628ed
bd246620
bdb4644e
3dce2f84
3e44109f
bd40ead6
3cabac31
3d6c7644
3dd0f2c5
ba1e655a
be287354
bd51722f
3cc7bd6e
3caa7379
3d395bb5
bdc1f8cd
be698034
bd0eefeb
3d2850ef
bcde5056
be64a16e
be1ac891
3e22f843
bdf6134e
3dbc4ac0
bd4e271e
bda8d3f2
3e969614
bdb78c1b
3eaa5310
3ded0662
3e5a2342
bd8e7b07
3d0b04ee
3c0c105a
3cab22fb
be153c9a
3c869c78
3daf38e6
3dd58962
bdbe7b98
3c824bf9
bd531e72
bbd91760
3e2046be
3e003eac
bb36a52f
be006f29
bd881805
3e109db6
3e266c02
3d701dd3
bac06fef
3bff1146
be095fbb
3e7cab5b
3e461f33
bd5bf124
3d5c8bc9
3ddcb43c
bdc79c9b
3d8471c0
3e898f95
be0249a2
bc946225
3d08f8fd
bca7d738
3d992979
3e052fe3
3d835c04
3d470112
3dc9559a
bd198303
bbb97488
3d95ba94
3dc06c5e
3df9994a
bdc24e53
bd6a32e9
be5c2e0f
be47e822
3ca85def
bcca136f
3e32043f
3cd654b1
3e2bff4c
bcef706d
be20d551
3d5786ef
3e2b0e06
be375bb8
3d13db68
bd6f6bde
3daa461f
3e8ddd00
bcd14bfc
be500e21
3e44edfb
3cbc16e5
3e6729f6
be16da8a
be2ee27c
3dc000eb
bd8ecb60
be2290c2
3dadfa82
bca319a1
3df242d9
3ddc849a
3d1c043e
3d80345d
bdac30ca
3dc66324
bde9d525
bd5bb3ee
3d767772
bcedbe6f
3d25b2c4
3e10a874
bdfbdcf3
ba292676
be3efa59
bdcc4d3f
3af50b28
bdbc2d3e
bcbba581
3d91bdb0
bc45ff3f
be27364b
3dc4387f
bd9bca81
be530a1a
3d43abf9
3d0d824b
3dd1bf62
3e5d4b97
bd674a0e
bcb7b32d
bce593ba
3bbdb13e
bd55cf75
3e345f44
3e7eccef
bb13bdb3
3e08c23c
3dd27bbd
3dc9e91e
3db916e6
3e0ea666
3bad5d3a
3dc290dd
bd7c1baa
3db3d778
3de0b3a0
3dc9ff1a
3deff12f
bc8ce023
3d188875
3d953744
3d8722b1
3dc707ad
3db47b73
bcb7ba27
bd8dd6a8
bd5a49d1
3dbf59bd
3db3007c
3e5ef155
bdb06044
be2a8175
3d913e2d
3d844ee8
3dc006f6
bbdc1d32
be1bc27d
bd08e022
bd31a576
bd3a3f2a
3e1e4728
bdf93e55
bd3aef22
bb115778
be0505b2
3d5b5b67
bdddba55
3db404e0
3d048e78
bcc0a004
bc28cdc7
bc44da2e
3d22bf77
3df25a6e
3e19490c
3d6d500a
bce460de
3d929ade
3deca2b3
bd0e4ec0
3cae9498
bdbc83f3
be2bef57
bcf6d640
3d5b58f5
3b1a1a85
be2dbb9a
bdd78126
3d736d55
3e041b04
bc68c5cf
3c3c0127
be44bb47
3ded57c6
bd3d94d7
3dc92be5
3ea98735
bd3b3da3
bdd8d1f8
bd13fe80
3e3d688a
be6543d5
bd41fa58
3dd53155
bd9ff062
3d45ad92
be1b9972
3d98d7ee
3d505d5a
3d4b7380
3bd8aba9
3d8afd92
3d4989ee
bd8ea540
3cfe44ac
bcaa5c97
bcaa5c0b
3e285dd2
bcac740c
3e218ecf
3d0f2e3b
3daa0d39
bd01be77
3e0616c4
3d8466b7
bdbc9f67
bd4362cc
bd54254f
3c950931
3e095c6a
3ce4b3fd
be165992
3d8532f4
bd78e222
3ce9a12c
3d267800
bd874bf9
bdbfcd31
bdb4c95d
bc9a3bc9
3d690eef
be5b0a3a
bc40cddc
3da810cc
be1eb6f1
3ddaddce
bd7de55f
3d0644a3
3d984761
bc69aee9
bd64af8b
bc45fc61
bd0c1d23
3e1ccac6
3dd2846c
3e0bffdb
3e550e2c
3b246029
be2d5bea
bc87b081
3db7d636
bc5ffcbd
bc4b26a5
bcc031c7
3ddcc543
3d0bf1e3
3e7ac668
3d2d027d
3d95d1fe
3cdf161a
3c207716
be100ef2
bd378bc4
3e1a74c6
3cccb1e8
bca7278a
3d9c13e9
3c73a041
3ca30511
bcdd9763
bd6ad749
3e1ec308
bd07389f
bd7e1965
3e8cf81d
3daaacb3
3e095318
3dcd3036
3d1d9270
3e108b53
3d6c40c5
3ebf915b
3c81397d
3d4f3133
3cc09fad
3e0b3843
bd593f4a
3ca01d4d
be3df72a
3ddb7da6
3e91c757
bdbfa650
be21ccce
bda90929
bbe5c263
3d7e7b2e
bd1f0b67
3c2fddea
3e3c2bca
3d884357
3cbf967d
bd9bf228
3ca7aa8f
3e080c27
3c22ae8f
3cc2a4eb
bd5fcc97
3e017521
3e246566
3d7795e1
3d5a34dd
be0449d6
bd45b593
3e459d07
3d988e99
3ca7ef34
3dd73a36
3eb6bceb
3d361f2d
3c98dc92
3e0dd9ae
3d907c34
3e0692ce
3dc8e957
3df805f0
3e2abe76
3e957b65
bb891cae
bdc4b6cb
3e43cc72
bb3eefc8
bdd348a9
bd20731e
3db580b9
3d38b437
3e3c651f
3d254439
3d5d0ff3
bd92c6a8
3d3a713d
3ddacc54
3dff3c3e
bdf5a4a8
bd61e80d
bdeed63e
bcbab3ad
be1227a9
3dd8860a
3d3c8729
3cc5b89e
bdfb3a4d
3e1b2f01
ba929c23
3e5048d0
bc231d8a
bda3a190
bcd4c1b0
be14ea30
3d82dd1c
3e7fe494
3dc1a7dd
3eb8428a
bcb482e2
3db637de
bc9f0ab9
3b7c1897
bdfc088f
3cc8a75c
bd87969d
3d2440af
3e76275b
bdcef4f5
bd34d140
bde9006f
bccca2e9
3c033003
3de55865
3d972497
3db9cb93
bd682cc4
bd3946b5
be144867
bdfa2c7e
3df0f463
3e188c3b
3e025265
3d9c610f
3e1658d6
3d796f2e
bc110566
3d30a8f6
3d476cb2
3cbf58aa
3e080a49
3c68388d
3cc74b5f
bdbd1aae
3e7d2827
3e97fb77
bc24af03
3d52a4e7
bdf43bc0
3de23846
bd06645b
be4a5d30
3db3893c
3e19f3fe
bd4a5f34
bca0edfa
3e157c2c
be03d7d6
3e60bf4d
3e29d90c
3e0fcace
be8fb0a7
3d98c6cb
3dbaf3f5
3dbc64ca
bdd81772
bd68c9e1
3e58e79e
3d8c848f
3dd1d80f
3e3884d4
bd1d0b87
3e44299c
be1731cb
bd890257
bd416cc8
be5bef3f
3e6d5741
3e76008a
bd992454
bc371e13
bbf1893e
bd3ffd2d
3e1c5a89
3cadf4f1
3d9848d0
3e3809d9
be1c2761
bd119770
bdb3c04f
3a8e658c
3e719c1e
bd9d9b71
be5decd6
bd14853f
bea47d72
3e0db6f0
3db9c1a9
3ddea05d
bb26a54e
3d9aae71
bddaa85d
bdb322ea
3c210415
bdf99499
3db196e2
bc123a6e
bbcc5fd4
3de7b94f
bd4eb6ab
bdda4440
bd89f62d
3a9e4a6d
bdab9d3a
bb5ae197
3e0618a3
be3b05d0
3cb80019
bd954f0a
bd118b9b
3d8818ce
be5683d3
3d1f2b99
3d94a162
bca360bb
3d057115
be36fb35
bd97848b
be66eac0
be2004e3
3e57031c
3ca29fb8
3d822be2
3d5544ae
3e0cb32f
bdbc1542
3e1ef443
3bab7777
bd246230
bde010c9
bc9e9da3
3d4a2334
3ddc5f52
3e042c21
3e52d0d4
3b0e96be
bdfbaff6
3d0f4b61
3e91788d
3ccdf611
3d1207c9
bde9f198
bdae4cde
be060fba
3e69a1a6
3daccb34
3cbff310
3d7a5613
3d3c8147
3d22b767
3e41c864
3d69c2e8
3d59cd01
3e12d35a
3e1014ea
3dd4a804
3dab2014
3e522528
bc03d7e4
3e1d7d0a
3e59bdcb
bd17212e
3d298173
bc69103f
3d915e76
3d153303
3b6d89de
3e22647c
3d08b2b9
be2e2d47
bdaf22a8
3d286e95
3ced5b0d
bddf6ba8
bbead7da
bd25fe24
bd83711c
3d839953
bbebf5ab
bc23a204
3d9bd780
3e35b64e
3d877455
3e828323
3d2a23a7
3d448374
3ca00067
3da3f908
bdb2d454
be2726b2
3d996d1e
3e096719
3c1aa038
bdf32141
3ddcff45
3e3c8189
bce6510a
3dc29c24
3e3111a6
bba1e2ed
3d9ac754
bd53e082
bcfbf39e
bd421dc1
bb08c236
bde02646
3d9097d3
bddd9bdd
3d422da7
bd7cde73
3de8b8c4
3c22c194
bdb9cb4a
bd763a66
bdbaefe4
3c328fcb
bc5b4c7b
3cf06fa2
bc8eee3a
3d47b208
bd516269
bd84a01f
bd2cac4e
bd2f39a8
bd93d96f
3d63ebfc
bda64046
3dfa2b16
bd230d31
3c08179b
bd3896ae
bdb6fa48
3d3393ab
be251c5a
bdf4b679
3d0aedc6
be15231a
bdc246ef
bca7b2d2
3dc2dec9
3ddc7ad6
3cdc0f32
3e01aee0
3e7dc452
bc91a2e9
be02a565
3d317dcb
bd05d847
3d9ca478
bd9fa6ba
3d969364
3e1786c2
3e1ba6d8
bc98e1bb
3e0dd67f
3da00c2c
be042154
3ca2b5a9
3e9d4009
3dba7f5a
3d8b16a2
bdb42c3c
bd55c5ce
bdd768c3
3da78aec
3d8169c7
bc8bcf22
3d92494b
3db64ee5
bd8986d2
3d6af552
bb81249c
bdd316c2
3db6b277
bd99d038
bd8ffae1
3e07466c
3df55a84
3d782310
bd0a3193
bc3d8039
3b9a6c3e
be3e503d
3cf9f858
bcece688
bc1d48d2
3e339620
bc7047eb
3da29292
bd586746
3e9d71c0
be3e9eac
3daf1c55
be361bdf
be461c31
3d4bf5e8
bd9ed6ea
3d9b21dd
be0a02ea
bd9a49e0
bd389ed6
bdcb7c43
3e76bfa3
bdb53d00
bc817e5d
3d3ce634
be85f839
bd8f67a6
be2e3a3b
bd4e4f09
3cc2d2ed
bdbaa0a6
be50b51a
3e972974
3ded039a
3d449c26
bdf465e8
be13e4e5
be40678a
bd674c6a
3d0495b3
3d3a70bf
be49fad2
be7a55af
bdb534d5
3d85bd7e
3d93ddbc
3e61ad4c
bdbfc8e2
be3902d1
bd4e2b2b
be16f156
3da15e92
be2d9b17
bc9b8fc8
bc110a56
3dcba3ac
be3fc672
bd4f62a6
bd5d0ab3
3e2f1b64
3e4342ea
3d3063be
3e6d76b0
3d484019
3e51dead
bde9d4a2
3ec62ff5
bd7e060e
bc1be160
3e2b3968
be2e2631
3e099e8a
3e42c661
bc5a9d26
be7fc0c6
bc984f1a
3c2d0abf
be9ab994
bd9d333d
be1dc4df
3cf973a7
be4a7378
3df3b900
3d9b29c7
bc0f9437
3e6f73a9
bde96573
3e066089
bd912a62
3dcbe515
bc572137
3d3e76fd
be89adc1
bdd78e56
3d814d84
be46580c
3c5fbf35
3e2529dc
bde7d2aa
bdd826d5
be9727a9
3da64ecc
bd80bdd6
3d902f08
bd3f4a26
bd96c3dc
be4dd73b
3db7c508
3d140d16
3c1e7dfa
bdb76a31
bda6b71a
bb8d686c
3d2fa9fc
3e04f6a9
3d0ea92c
bd0bf103
bda05979
3d72d5bf
be432e2f
3c6af7f9
bd59bfc5
3e6dfe92
3cd313af
bc23df30
bdfeb5e4
bd2b4b1f
be797f94
bd89664f
3dfcf336
bddd83e4
3dd27b4b
be441b49
3eb7cbce
3e2901d6
be32953e
3e35d4bb
3eec2a6c
beac2598
be810573
be256bd1
3d174ab6
3c9d673d
bdf6f821
bea3f970
3da12de9
be4dcef3
3e4e1411
3d80e365
bc6ca783
bdf4c0d0
3dd4f414
bd9bb882
be8572b0
bd419f6b
3e54a715
bdca88ee
3e37eea0
3e5693f1
3ce1dd10
bcd0886a
3de43006
bc661360
bd9b7574
3bf0f910
3d83f49f
bce84cbe
3d5924d7
3d27c6c8
bd30e4dd
bda76e1e
3df4c7d3
3e4fd8ef
3e54bdb4
bd0bd365
3d87ea3f
bba25dcc
be389793
3e07168e
3c94fd76
3cbdd4a8
3db0e028
bdb8c986
bd2cb985
bd0151af
3d2d1110
3dc35dce
be133bce
3e1a6406
bc94964a
3cff7e97
bbb6b444
bd4d4b3e
3dd011d0
bdc7644e
3c30109e
3c8efa87
3d8059c9
3d7c3635
bded6c5d
3d04b71b
3d7ab717
3def89b8
3e30938e
bcb8aeb1
bd0329be
be17349c
3c932132
3ce57080
3c6914ef
3d5bb18a
be06fa34
bde33547
3bf7bda1
bdbf755d
be2530e2
3e07fc9b
3db69c6a
be52a94b
bd2b544b
be2d5c78
3ce8673c
3cbfa829
be4b60ac
be56f8d2
3d5007af
bd9eaa6e
bdd9d4fd
bb067971
bd616aa7
bdd0891b
bd216000
be1f786a
baaac903
bdb6369b
3df9fd82
bd163660
bde744f0
3df69a4f
bdfed58d
bd9f495f
3cb55f84
3cee1810
bb8dadff
3c18015d
3dee00d1
bddda32f
3da61e6d
bd5bf1cc
3dfe41ff
bd911087
bcb098c7
bd6f3994
3ca7767d
3ddeb843
3d30dad7
bbad4899
bdaf7e67
be50442b
bcf6cb23
3cc2b063
bd1c5407
bd9676b2
be5cc6b1
3c8be3fe
3c8f98bf
3d9df312
bcc23771
bd1a51e4
3e47542c
be1ab5fd
3d092d41
bcfc446e
3dabbd37
3c3ce232
bdb2cdfd
3dbfc32b
bdb5a0d5
bd6b193f
3e0192ef
bd8056be
3ea9c118
3e85a585
be2b3f11
bd24293c
3cc9463e
bdeedcfb
3e75e273
3da1c27c
3d224cb4
bd3f0410
3dda782a
3e352693
3e09ade0
bd549ccd
ba1aacb8
3e09e0fb
3e2721f9
3e6deec5
3e8275e9
bd959b45
3e05e7a4
bcc0eaa8
bd810ce2
3d71aca7
bdb0bc39
3e436adc
3e83bb40
3cfbca44
be1b7ab0
3e805fd8
bdb7d0b9
3e1c7efb
be11b3a7
3dbf8e5a
bd2e1842
be44142b
3d41331d
3d59cf00
3cd810c1
3e4fe16c
be80a84a
bcfd84cd
bd8af0da
bde46418
3d9a7f23
3c8475ab
be0a3a25
bda03b8b
3e062c54
bd9c4acf
3d2d800d
bd315363
3d9dc764
3db0b6c7
3cff5549
bd5cc1e5
bd6c1a9d
bd90dbec
3e40d6e3
3d1387e9
bd1553cd
3d4a0652
bd8edd83
bd3b3e68
be0440a2
3d7d6b8d
bdc95261
bdfc8ae6
3d924a5a
bda27596
3ca07baa
bdf52cbe
3d9284a8
3c36aa76
bdc00bbd
bbe9744e
be17cd6b
bd277115
be466b7d
bb10e151
3db62d0b
3e0108f5
bc610877
bdb10920
bdf00040
bd4aee2c
bc377f41
bd9100c9
bdca2ffd
3d83def9
3d21a682
3e502a48
3d074354
3dc4e481
3c1c5ebc
bccb7a7c
3d94552d
3e017030
3e0b4fad
3e0b04e9
3da1d7bf
3a5a2aff
bd98c77a
bd74e5d0
bc82b693
bda68fdd
bca1deca
bdab3134
be39d3ad
3bc50d92
3daf33bf
3d4a4677
bd6ec223
3da41186
3d599906
bd8e9eec
3e113ae5
3d33c8b3
3df3b891
3d93f9ff
3e00ab37
3e262cd4
3da5719f
3dc07ca8
3e113955
3b841a66
bdccd586
3cf4fd14
3d3a44c1
3d95972b
3dedbac9
bd66e0d6
3dbe2b82
3e6d3a2b
be317fcd
3e27019d
3e1108c5
be45dc37
3c92161d
bda32506
3dd9598a
3de010e8
3dab4c74
be10fe89
3d92fc3e
3d8abe64
bdae6989
be0c3f1f
bd2aabb8
bdd497be
bd996ccc
bdd95ca5
3d141f00
bd84e9a4
3ec3bb5f
3d5f39c6
3df9f77f
3daeacd7
3d547ef7
bdaef71d
bc9847df
3ce492a6
3d9f4b85
3dbd12ff
bcda464d
bc8905a6
3e139475
3e0eed5a
3e8a7c54
bd212b63
3dca6a71
3de95041
3d19748b
3bf54856
bde04ff4
3d5a6f5a
bd88e71a
3df6a1d6
3dc33093
bded2d83
3d368022
3b12702d
bd9fa945
3d56ee12
3c8dff67
3e270539
bd835dd2
3d3f66a0
3d903c0b
3d4724e3
3c85a864
bdbb22cf
bcafd0bd
bdaa2366
3e0be20d
be0e6ff6
3d856d80
3e50d63a
3da5a9b8
3db9af80
3d559895
3d581cac
3db1848e
bc3c4c4f
3db31057
bdbd643b
bd0f3501
3ddeaeff
bce73502
bd1f8fe5
3c2c2c73
3d98f1a4
3c44b8fa
3e0c0044
be108a64
3e0de820
bba8266b
bd9af4d9
3ce377f1
bd863446
3d7c6e9a
bd934b99
bd286226
be18c236
3d8f9edf
3d0df38c
be5bbfaf
bd3ae4df
bd306dbc
3daaf56e
bd262aa0
3d1e5ec3
bd9385f5
3e187d51
3db8083f
3c3a12b2
3d60e4b2
3d0eecb1
3db0dd7a
3d68131d
3e047e4c
bc9c337c
be3e562d
bd85629b
bdb438f5
bda88c04
bbc22e16
bc0271de
3d5ecb73
b9de0f29
3e1d7472
3d9e0079
3e2fd123
be82e3ea
3d735a63
3ddc45af
3cc99d85
bd567d82
3d56778f
be82b7b8
3d084574
3dfe1891
bd80562b
3e7a4e06
bda1c75f
3e43d7d5
3e5c1b64
3e2d80e7
bd9a813d
3e88c53b
beb1ef46
bd6758a7
be2c6655
3d4c3a1e
bd0ae64c
bdd38ad7
3e354525
3d08308c
3e4534f2
bda9100a
bda59dab
be1a30e6
be12f6bf
3c157a5f
3d6ae435
3e49addf
3d443172
bd0d013a
3d503dac
3cc17e1c
3db69d68
3e17e564
3dfd584f
bddcb8be
bcf67c61
bda55107
3d8efcfe
bc5ba09d
3e2b9951
3d17b322
3ced8f94
bdd6fcee
be1e1e98
3e0d502b
3e041b34
bd841d1e
3e3c0ec9
3dc3c358
3c514bd3
3d165c9a
3e2ce24d
3d607e8c
bc7bb4ad
be85ac07
3d837588
bdb7527b
3ce9a4e3
3ac1d7a3
3e68c68a
3ceb7a77
3d24446a
bdcfce83
bd53197f
bd0f35cf
3cf48e79
3e21f577
3d3abfac
bdfa4640
3e0257ab
bdb9cbdb
bc8d4528
3d639e8d
bcf1ac8c
3e404b5a
3d420097
be112bbb
3cf75b4d
bd10a03f
3d8bae97
bc78fe61
3e0fc67f
3d551edb
bdf85cc3
3e4ff7ef
bd81320b
3e1df0e3
bdb142f8
3dc34fcd
3ad45e3c
bdd192f8
bc9132aa
3d2c7221
3d9979d5
3e1d05bb
be0535e4
3e29fd9d
be15756b
bd751d4c
3eacae8e
bc11e0e5
bd8ed305
3d1841c2
be1b22de
bc46ba3c
3c68f309
3e910131
3dbc81c8
bd8145ff
3d8fe8f2
bd00f66b
3e0c4c4d
3e8b4217
3e39abf6
bd6df912
bce4d44b
bd5d04ae
bd8c8842
3d8ef70f
3c4016c5
3de3c052
bd995daa
3e17c5e8
be0f9af3
3dc7057c
3da41bce
3da89ee4
3d361f6b
be39116b
be74a49f
3e296292
bd9f0b05
3cce1452
bd8e4af6
3d9916ed
3d1844b4
bbc6f18a
3e455089
3e0f6fc4
3daa6950
b95e25f8
3d03c371
3cc96e47
3ce08c3b
bd025d44
3de01b3f
3dab8199
be2002ab
3b84b6a9
3c784cd0
bdc9b34f
bd2b34f6
bdf1b863
bda0d232
bd7f8844
3da55ae7
bd512849
bdef3b24
3c88398e
3bf90940
3cc2458f
3d6f1126
3e0dd029
3c9e3d7d
be5b64a6
3dcc6959
3b7aecb8
be0888c8
bd164474
bd4acd90
bc4e5758
3c91ea9d
be2d2784
3d8fa879
bdd8a7f0
3be6e942
bc2eb3a1
bd18c7c5
3de13488
3e4493a7
bd28022c
bd8f66f8
bd3ffcf1
bcf6e5a8
3c7c5321
3dcbd681
3e261814
3d0ac0cf
bd1f634e
3d11107b
3d8588b2
bd356ad5
3c9be7dc
bcdb9bdd
3de18ba6
3de27dfb
be10fcc1
bc678a77
bded0a25
3be64c77
bd817df8
bca16dd1
3e2ea3ba
3ddbacda
bd156620
bba63bbe
3df65842
be09e44e
bd84ff31
3e5245f2
be0b1eef
3e2e4110
bda06cb2
3e1d9c11
bccd012c
bd1b696b
3e5e4c1e
bdd27eef
3d445b80
3e0fefeb
bd2dde99
3eaef5d8
3e8acbdd
bd871cf5
3dac3aec
3e1fb9e7
bd97202d
bc843541
bdda0478
3d5795bc
bd721f7e
3e66e311
3d6a9c06
3c96e08a
bd674300
bd7e2d90
3dad08ac
3e405375
3d4d31cd
3e9d7df9
3dff6b3b
3d468844
bcf8f902
bcc5505f
3de0b8af
be09ddf5
3b514587
3c14bd08
bd07eb87
bd8d89b4
3da15b40
bd905f4c
3d1ea365
bd033018
3d8e59e6
3d90888c
be352969
be0a3fbd
bde7d204
3d32a132
bd0603f1
3db627f2
3ccef9b8
3e10fd71
bdb351b8
bda48b69
3de0427e
bd4506eb
bd6f595e
bdea72de
bd56d9bd
bd82dad5
3c330fc5
3e305e11
3dd8c7fa
3de3d91a
3d0fa5d1
be04f371
be5c0a25
bdc3d70d
3d90ed50
3dc9956b
3e4d9603
be0ff964
be48c302
3e01bcd2
bd2d1f03
bd57959f
bdd30c82
3d8354e5
bda728c2
3e190a73
be2c58d1
3dc5d29f
bde704fa
bc932aa3
bd9ad566
3e52d154
3e113c8a
3d6eef4f
3d3c1da4
3d01f7a0
3dae476f
be82102a
bde34065
bc00480e
3d7f178a
bc485229
3d0b60b6
3d8d2c83
bda6461a
3e5d252e
3d830968
bd768157
3df21ea9
3d2d2eaa
3da9190d
3c898801
3debb896
3e322b4e
bda4652b
3d51ba8a
bdd4e8f4
3dd2672c
3dfa39eb
bd9c428a
3e23fec7
bd92ec65
3dd9956a
bcce4379
3d02cf0a
bcbb9168
bb0e1265
3d20e050
be1eab0b
3d0afe9b
bdbbf185
3e11b6f0
bd0a1e40
3d84caec
3d5a0a18
3ce0466b
3e30e1ac
3e75b7ff
3dc1cc96
3de57ca3
bd76e306
bddae5e4
bc0e5b34
3d96b0ee
bd23a979
be13d67c
bdf88f87
3cccb898
3d6ccbfe
bd886073
bdcd1ce7
bb4e07bf
be30a908
3db48961
bd523c37
3d9df7ed
3c6a05a8
bdd54b1a
bd54e6be
bd6d496f
bd4e629b
bd883cd0
bbdebe7e
3db767cd
bdf4fb04
3caa6d4a
bdfcb90a
bd66e716
3dba0ce3
be0374a3
3d87435b
3cf834b8
bd1bb81d
3c9a5513
3d635675
bd44cc78
bdabcfc9
be57b5b0
be7039cd
3d62d7cc
3e960e9d
bd5828a3
be5a7cf6
3d8d560e
bdbc1e2e
3e42d6b0
bdeec341
bd40b190
3db13ad0
bdceee72
3d98fcbe
3d96170d
bdbefd25
3df792ae
3d8cb360
3e59047b
3c1f3ef2
3daa02c9
bd8fedf9
bd34d58c
3cab2640
3c06f2c1
3d53d107
3e32fd5e
3c3cdd65
3b6187c0
be00f599
3e701ddc
3ddf31e6
3cf47bec
3d5108f9
3d101019
bd7e60a5
3db631d2
bdc2782e
3d9de890
3d091ee1
3ccfb3d0
bcf3f58c
3ca27907
bdae3a5c
3c5f3f35
bc7e1416
3d9b5853
bcf0fc6f
3ce4b324
bdea1f2c
3bf96c49
3d4df798
bd844528
bde9c3b1
bc08a2bd
3dd62cb1
3d98d004
bce2039f
3d7d3779
3d4f712f
be4ba45d
bbe2b20f
3d034734
3dd21d43
be30780b
bdd6582c
3cf1c60e
be71fc08
3d2a66be
bdbbcc40
3d25edf8
bda13c3d
3d0a4195
bd4a637e
bce05564
3988ae29
bddf683f
bda7811a
3d902bb8
3b94cc32
3e81150b
be047f74
3e93f8d8
3e025494
be3c3057
3db28a76
3e8ad4f7
3b965b8d
3de35a68
3d53f2b9
3d57e738
3c9ae39e
3da09377
3e44e328
3e166ca6
3e6af0bc
3d071b77
3cd12eef
3ce4c047
bc33aac1
be158d4c
3e07bfb7
bd8ba4a5
bdc2e889
bd3a50e0
3e0bba3f
3dde78b4
bd0c1439
bbbe2e8f
3e54e99f
bdc0aca4
be3d791e
3e994161
bd55a7a3
3d729e92
3dcef50f
ba8265fa
3e0c407e
3c910e6b
3d24b917
be351da0
bda6c877
3dfbe45e
3d92a8da
3d8e6b3a
3ce46810
3e1e24cd
bde870b5
3e1d92f7
bcb7cd8b
3d3e5d73
bbfda296
bda22860
bc761f66
bb929f5f
3da8e429
bdf44b69
be271a1d
3e4ee334
be26a598
bd46f417
3dfed7d1
3d86b3b5
bd9720b9
bcdacab6
3e25838a
3d88438c
3e4a3e55
bd423781
3e53e79e
bdba352e
bccd2d26
3c546efa
be622f7d
3e0ead44
3da60dd2
bc44d241
bc1d2c1b
bdd41178
bd87a658
be146151
bdad958a
bc91dff7
bd9999df
3e0e48c9
3c619104
bc1b2869
bd34a463
bda50ebd
3df66d45
3df8e92e
bdce2c4a
bd63c9b6
bdf0d52e
bdfecc80
bda486ed
3e939870
bd745c7b
be502e86
be660a7a
3e0544ca
bdb9d20d
bca67f1e
bd5ea95d
3dd29002
3e03ec89
3d685ea2
bca46287
be5c3e30
bdb84638
3cdb87c0
be0bb3f5
3c427709
bd00672b
3bdae7a5
3dfd9f43
be2034c0
bda998dd
bdae6822
3b6abeb9
bd062af9
3ddac4ed
bc214bb2
be3a35d3
3decc9ef
bd44259b
3e05ba66
3d955010
3d8b4dd6
3e8e9c00
3e3349a4
3e6303d9
3da8ecfd
bd7398fd
3d9b6e6a
3d4c7906
3d16108e
3d2b2855
bd93d98d
be246482
3cf0311b
3e9790cc
bd4c701b
3e5c2348
bb9a4670
3e0aef51
be0cd1bb
3dc3d52f
bd12e57a
bda498e2
3d0491ca
3e27482c
3dcad127
3e78f265
3d36a55f
3d378594
bd997aa7
3de4da8f
3dd5b839
3e1c6c88
bda67dcd
bd4535b1
bd10ce66
bd062c2a
bd098dc2
3df0748a
be3ec583
3d9e1ede
bcef843c
be0bfb1e
bd1a73fa
bdabc3c6
3cf5a66d
be0d8f53
3d6ecda5
bdca545c
bde96d11
3c82bef0
3dc8ba84
3d40a2e3
bd8c0f98
3e1008a7
3dcb0f33
3d099d79
be0fa7a6
bc2720b7
be0eb148
bd981010
bcaa0a0f
bd08a008
be3798a3
bdd753bc
be1c854a
be1b4e22
3cfc79d1
bccafd81
bdc01ba0
3dfc543e
bd843b2f
3e957944
3d8d1ff5
bd28f80d
3d476013
3d2079ab
be1d1768
3d852bdb
bd92cb43
bd09c891
3df503cc
3d94f3d3
bdc07815
bdf656f1
bddac95e
3d975e36
3e4c2ea5
3db1b6f8
bdcf33ab
bd21f117
3dca064b
3c39665a
be27ebb6
3cc269cc
bdb9699c
3db8efc5
3dca41b2
bce7e901
be7d3879
bd83ad33
3cda6daf
3de89586
3db52e7e
3da713f9
bcf851b9
be1b2c88
3e43f0ee
3e126e94
bd631283
be029ca2
3ab3a44e
be0e7a96
3d3d75a3
bd94ef56
3e5b8442
3ce7f8fa
3d98211a
bd2f995c
3e92d09a
bd5de7b5
bc4f54d8
be228af7
3de04515
bdf3837c
bdb23caa
3df7bf62
3e8c0715
be3520e3
3d079170
3d55b428
baa67903
bd9fb0b4
bdc98464
bddaa66e
bdb9f7c9
be18246a
3dcbee68
bd0afb50
3d225291
bda53df5
3da33c5e
3e4b0c5a
3e18f572
bd9d23aa
3e92931d
be17951e
be060f08
bd40ab90
bc99ea01
3e3a83fc
bcf554b1
3e8d70d9
be0a25cf
3c436d9f
3dad6aed
be0efbf6
3e88af4d
3de34dc8
3d81495c
3d696851
3d8a38f0
bd731d01
3db90f03
3b64389c
bd91ec15
3c07c5e7
3dad6cad
be1024fa
bcf290a0
3db496ec
3de8fbb1
bcd8ac4c
3d25683a
3e107d0e
bce1651a
3d1a4102
3d68efa5
3d938b0f
bc4677d1
3e7eb7c9
bc182459
3c988ea8
be1a41ef
3c0661ef
3d5877c8
be379767
3cea5876
bdfceb75
3cc46593
3d8f1d8f
bd4b0b03
3d36f474
bdff5966
3c897026
bde4903e
bd5e10f0
bc718d20
3cdf8c9d
3e2446ba
bd1a6384
3e569819
bc695d26
3c585848
bda5d3b5
3dd9aab2
be17da3c
bd0f6c80
be36f3ca
3da1fe25
bdd2ff4e
3c3a6b96
39b299c9
3db9567b
bd87bea0
bd1464e6
bdde3068
3e95dcbf
3e2d3b91
3da752cd
bdecbd44
3dc80d39
3d38a168
be50c145
3e0a232a
3e00904f
be10daa4
bd9ee468
3e0426f7
bd13d39d
3e87a4a2
bdb08021
3d36f186
3e4bbc05
be7549be
3dc37c06
be22e486
3e9a87d2
3dc79f0c
3e4c8c38
3e313696
bcee4c7d
bda5b4ab
3c9131f5
3e17cc30
bd1573ca
3e221ddc
3d521b8c
bd78cc22
3e73da7a
bde51613
3de6a731
be0cedac
bcd3c7ab
3e07bee9
3d1ebcf8
be5d605f
3e9249fc
3dde0573
be016817
3e9058e1
3ca739a4
3d8d66b0
3c863578
3ca0f05c
3dac9e97
bd14e081
3e1dacb7
3e13440e
3db04d94
3d8ffd1b
3dabd774
bd35f4d5
bd9dbb4c
3c33f519
3d5113ef
3c142479
bd8080b5
be0100a9
bd62c921
bce2ba41
3dd385ad
bde39d67
3ab771a0
bd45e38f
3e123935
3d766948
bd4d7274
3de1b619
3c59fe88
3db0874d
3c7c4e1a
3e17e0ba
3d9dcca9
bdd66425
bd930eae
3d255125
3d8643ec
be122013
bd491695
3e1cf7a6
3e7106b9
3d6f3ff8
3e07376a
bbb81133
bdad42d8
bdc56190
bd579032
3dd8c278
bda13ab6
bd8a67c5
3dab5c6c
bd5ab6e6
bd994060
3d9ac21f
3c87e13a
bd97400c
3d33aab9
3d96ebb7
bdaf5d76
bcc5ee7b
bc179255
3e3fbd7a
bc91b51a
bd365bcb
be2d5b4c
bdc3a325
bdb2c03d
3cb91b1f
3da8535b
be32c8ce
bddc5b88
bdd08879
3d7eada1
3e551bca
bd917437
3e2390e2
3e2facf1
3dac4ca0
bd90c3a1
bd33595b
be5b1c3c
bddaf0d3
3e315d07
3e5d171d
3d79adb2
3de8ee69
3de82366
3e25bfe8
3e571b63
3daf37ac
3e371210
3c85fec9
bdf5db77
3cf1397d
3dd14a29
3e092a4d
be0d9f0b
bdd8d742
bd0d9641
3d384c09
3d111fe1
bd624024
be202ef2
bc29d595
3d470c00
3de03c79
3dcb10a1
bd8912f6
3df84a6f
3c32ff74
bcc4495b
3ea7359e
bd95e100
3d5e4e93
3d09750d
3bdb7fde
3c8e0366
3d0d78d7
3c893302
3ce8adc4
3d9f60ac
bdcd737b
3e2352d9
3d908641
3d02305c
3d8682b1
3dff1050
bcc16456
3c7d30fd
3d5deea5
3e111424
3d0a0db6
bd1b435e
bc2928b1
3dd1c50b
3cc4480d
3dde29eb
be038661
3db4609a
bdbe2c32
bd795d09
3dd0f888
3d2d0d6d
be52134d
bd3f13ab
3e3ae78e
3e3eb6dc
bdbfd0fc
be24c5f6
bd032f27
3da21c69
bc86effe
bdce57d5
bd504f81
bdc4fdf9
be4a7204
bbbf33e2
3e512194
bbc258e7
bdfa34e9
bc4dc117
3e11c724
bd462fbe
bd06108e
3e02c341
be0af110
3da1c560
3db29d92
3e0a63ab
3d391152
be1dd323
3ea9b48e
bd5d8447
3e70360e
bb8a8e20
be611996
3d8c0663
3cc3ea16
bc51f42b
bcc1689f
3d33276c
3e257716
3e1a23e6
3e1a077a
3cae55f8
3d79e897
3da00b45
bbded244
3e9012e7
3daa1492
3a963ef7
bd03566b
bc82980f
3e695f3b
3d37eadd
3e49f81e
bcf2c2bf
3dc763cd
bd91b554
3d70aafd
3e03254d
3c27f097
bd8a7844
3df3c443
3e40a4a9
3ddf78c5
bbaf43de
bcb64c52
bda2784d
3cfca31c
bd877b96
3d9eb75b
bd4aff24
bc797ca1
3bb72158
bbda1a86
3d09294d
3dac2ba9
3e6585e0
3db15a80
3e249e13
bafe61ce
3e2ca5ee
be449806
bddb9aa3
3dc4b19e
3e2757d1
3dc8e4e4
bc833fb2
bdf539b4
3bc8ae54
be11cb75
bd117a82
3e12e56b
3dc36e86
bd8981cd
3dab71f3
3dbed6eb
3c92f53e
3d91debd
3de85f62
3ec58e86
be300b0f
bd882211
3e04fab3
be9c464a
3da515c7
3e85585f
3dd237f1
3dda6980
3d61984f
3e59da86
3bd96e45
bbc6c5e0
bcd2c102
be462beb
3e3dc8ab
3d1c7843
bd9cf12d
bd26aabb
3d0293f4
3e8711a8
3da7ad5e
3d057e71
bd8f183f
3c7082d4
bda3034a
bd308e5b
3e1c4366
bbfa7445
bdf79e74
3e04f136
bd6846ca
3e98f4d7
3db8ef88
3e398cb7
3d00d5c2
3e0ff1bf
bdcb3160
3dd7af8b
3dd07fd8
be1057f5
3d0b916b
bc419499
bc34fce3
3d95e7e9
bb4dce9e
3d4b922e
bb2e60f6
bdfceb58
3dc0338b
3d2a5ec3
3c449734
be0b571c
3de3f6a1
3e1a6c6f
bd389fe5
3e1fb34e
bdb7b384
3dd459d0
bd8a0aa6
bcd5252b
be8870cc
3cccdf1c
bd25aed4
bcade747
3dea8ddc
3dfd6a68
bdccce6a
bdac58ea
bcf5b4ce
bd5308d0
bdcba1f4
3d91d53f
bd4643fd
3d9b592b
3daa9df3
3db85957
bd4a3e1f
bcb98f4a
3d86e402
3e2e173c
3e37a985
3b1c9f3c
bd81d8a4
ba802cc1
3d6c3c9a
bda58b46
3e40856f
3dfaa937
3b55df25
3c7f95c0
3b536d83
ba503e3d
3bfada34
3e4e37c0
3d76f7fd
3ca4c01c
bc85e055
bd75cbfe
3dd9905a
3e0e88dc
bd1f8868
3e38b533
3dde23a9
be1df22d
3cde591f
3d52da8b
3e1b74a7
3dd95060
3e044f3b
3e9fb9d9
3d31598a
3e0f26f8
3c817945
3ed35ab9
3dd922a0
3d4c000c
3db5384c
be20f9cb
bc207524
3dc3a69f
3cf50264
3e02544f
be0d08d2
3ed674f0
bdbe30fe
bdaf64c1
3d8182e6
3e3cabe9
3dac874a
3e46bf8c
be2420dc
bde206be
3d302415
bdc3952c
3eb2eb52
3dba12ca
3dcec429
3d490d2f
3e1eb7fe
bc9c5fea
3e78b818
be0b25fd
bd847969
bdb5fa23
bd5b329b
be08ae9e
3cdb55c2
3db011d7
3dce90ca
3b0fe22b
3dc7c9df
3d27b377
3de2cfca
3d0c83d3
3e5ae85e
bbee56bc
3d979c65
3da5e487
3e062079
bd4740fd
be106c20
bd38a1b6
3c73af57
be2cf6b2
3e496331
bc09e5c4
3d2a4461
bb4d8c5c
bddeaff9
3e29aeed
bd9e0286
3d629b30
3cc1afa3
bdff1e4f
3e0eca84
3e0d9636
3da51459
3d0e2dc5
3e3a0d56
3e12d976
3e4dcfc5
3da0244f
be26e56d
bd32f95c
bcc6f655
3d274931
3e282912
bde6171b
bdc47d6d
3c689f5a
3da30fd7
3e3cbbaa
3d1e1ca1
3e326adf
3e8a66e5
3ce0a11d
bd3b9f7b
3e4e4b35
bc1b9e9e
ba8b4fee
3cf34985
3e1b4bb6
3dbc47c4
3d27f352
bd40f761
3ddde0b0
3d030993
bd008b3b
3d47cdbe
be1cc451
bd6b57ed
3e16b735
3e1e6b4c
3e450394
3e143c1c
bd906909
3d341d38
3d8dbf2b
3ddeeb03
bdc4a12a
3d97142b
3dd5581c
bd86d5ff
bcb86e7a
3dbd2abb
bd0451b0
3e3a0d74
bd9286b5
3e883713
3e57f97b
bd84fda1
bd0a8141
bdfb4226
baeb2d4c
be2e3556
bdcd6eb3
3cab1be4
3cd03013
bcdf2a5d
3d64f0be
3d9e64b4
3e653596
bcc47a25
3dee8a8f
3a2c2b99
bdedcb0c
be782c98
3e2f3e9a
3e215643
3e4c841f
be59b1c2
be3da0eb
3d90053e
be1c4460
3d5f84eb
3dfcda8d
3dbd0655
bceef62f
3dfb81e0
3d3fcca8
3ca26358
be251cb4
3c5ef35e
bc820d54
3d084d3b
3e43cd57
bdef934c
be36fac9
3e42c23f
be63f71e
bca70803
3d9a6111
bd6f845c
bdc8f5d4
bb934d35
3d955738
bd051bf7
3dabd6fc
bdc05ad2
3dc58baa
bd9ac6f6
be13781e
bcda7575
bdfe4841
3d84b7c0
3dd01ea5
3dab454a
bb552d01
be061d96
3dfb20de
3e0b6049
3cbaeb7f
3e100a78
3d9a5e37
bcb12f6d
bcd49463
bd11c184
3d0ede5b
bd11318c
bddd6ba9
be3a3aa5
bd65ec54
3e017688
be33889d
3e09fbdb
bb546d9f
3d139619
bd8e3ec8
be1d387a
bc85a4c4
bcf9c984
bd0bc27c
bd9994f9
3e16cbc4
3e2f7a46
bbeabee1
bc9c15d8
3d1ff96f
be503628
3d27eb38
3efc3b18
bdaac311
3bb763d6
3db8fbfa
be036fa4
3d8807b2
bd5ba24b
3c615327
3d8dfb30
3db7c636
3c0a56af
3b5f56cf
be3672f8
3d8f8cdb
bcd282d8
3bf189bd
be4dcb01
be50c7f1
bd842a40
3e4abf6b
be2dd593
ba0c767a
bd96fddb
be6fb064
bcbb760a
bce1c91d
3d8335f8
be1c9a53
bd18abae
3e670c15
bd3bc6a7
3db3a083
be344798
3dea6585
3e022964
3dd7b3f7
be7c15d0
bce62e84
3dbd815c
3d750be2
3e02ae56
bc873b26
3b777099
3df5863a
3cf5cc85
bda41cf8
3d70116a
3e5a7be2
bae750f0
3e37764c
3b234c99
3dbfc124
3d16ca1e
bd401dbd
3e5060e7
3d29fdb8
be4b3e4b
bcc027f1
3d041e44
3e0ec5b8
3c9004cc
3d7f0795
3d00d931
be56935e
3d81ba06
bc6137d3
3e48e538
3dfcebb7
3e0f6e67
3db06552
bcdd36ba
3df46282
3cf98b91
3e5a4e74
3e801a49
3d3c5e76
bc3cfe8a
3e0427be
3e042d59
bd24b5f9
be0f7279
3d7212f9
bc988e9a
3d6149ee
bd9ae126
3d9dd1f9
beab203b
3ea93991
bd907b1a
3b8220c7
bc868fe5
bc0b09b3
3e4d4a7e
bd42b189
3edcb933
3db89650
3ed44ff4
bdaf3c40
bced0fe0
be15fcde
3e785e8f
bdefa143
be4c7652
bdbe69bd
bb16418e
be32e4c0
3dc3c94a
bd297af7
3d71dc38
bea4c5ae
3e156212
bc8bb76a
bd1c12cb
bec03cfa
3e44f814
3e0e12bc
3d881020
3d9e9f7d
bd723885
3d86c9f0
bdbf2f2f
3c1b8b4c
3e2b7011
be49a7da
bdd75eb9
3df34ab7
bdd5775f
bdb6f39f
3c06c831
3d43d36f
3d15efae
bd39e5a4
3daf2acd
bc108f02
bdb0d006
3cb20642
3d2fe70f
3df649bb
3dbf4b3a
3de014b6
be0ac342
be446e40
bc8e1160
3e812acf
3e585b1a
3dcd9c89
be35a03d
3d963398
3dc6a428
3bb85e36
3d88070c
bd93bc45
bde0819c
39b4e025
3d4cbd2f
bd13ad09
3cf4d513
3d0303d3
3c983983
3e2f2af8
3e80063d
3dc72248
3e1019da
bdfd3e33
bd9f4fe5
3d10a4e0
bce41ae7
bc82f5d3
3bc7ee7a
be79de6b
3b49b554
3d751a21
3e01081f
3d532644
3e88c9f2
3e44a2a2
3e13388f
3d9e3376
3d5fa4ce
bd3883d2
3d94ebb2
3cc6aabc
bdb64ca1
3d388426
be58f67d
3d2e88c1
3e8f91b1
bd0da4a3
3e87c28e
bc3f9186
3e6800cd
3e28ca73
bdd194db
be9791b7
bcbce5e4
bdf0703b
3e657f1d
3dbe9a10
3d81488f
3c53525e
bd403d07
3d3cc1a1
3bd69e8a
be31607d
bd8e54bf
3cda17a0
3d8ea91c
3dc3483f
be20769f
bdeb49ec
be0cb49a
be143427
3d13cb52
3ea4d487
3d4e69df
3df0b874
bcc09a85
bdfdadf3
3dfe0242
3e057d9f
bcb2c059
3d825e42
3ccf181e
bde9ba76
be4613a1
3db1412f
3df64848
3d829244
3e63c530
3e81337c
3e235fb4
3e6c0dbb
3bb7e110
3e959f2c
bd0404e2
bd8df50e
3e366948
3c974958
3d2a963b
bd9f05df
3cd0fa0c
3e5e476f
3d38cacb
3ddbb897
bd2b30ae
bd21b5ad
bc44e8a7
bda5ff54
3e06c54b
3e4e0f78
3d9411c0
3c3ea4ee
3e4897a0
3dd31aad
3d3a70e9
3b421db0
3da4fbe7
bd835ffd
3c238631
bcfac459
bda1052d
be185f77
bd96aa85
3c42ed7a
3de063b1
3dc39d50
be24ef40
3dd0a055
bd4a628e
3d30e0cc
be19c1cd
bd404f04
3d0547f0
3d547c48
3d9840a2
3da8806d
be0449db
bc945364
bdab15b1
3e60867b
3d46b2a5
bdabc69b
3df7cc31
bb1cac04
3e07b76f
bce15c9e
3d94c08d
bdaaa00f
bc813a97
3ddcb731
3dced845
3ce9953a
3e11e138
bcd8f707
3d8ce531
bd4543e7
3db73b18
bc1a6117
3df7f923
3d07467b
bd6f6c2e
3d062335
be036b7b
be1465dd
3d0232f3
bba444e6
3e867db6
bd617bb5
bd8ade59
3e902ad3
bd189005
3e919e8e
bcf128a1
3e3ba2b3
bc5fd5f0
3cfe26b8
3d7fa17e
3e72c7aa
bd964e02
3d1a8ea6
3e82af11
3e54bef7
3db6fd2e
3da7468b
bda85c5c
bd4383fd
3d138d49
3cadc5d0
3e140e90
3cea8a2f
3d0ea6c7
bdbd1974
3d2178da
3d383518
be253b97
3d4e30f6
3de886f3
3d097067
be16343f
bda08672
3c2aa393
be3c72ba
3d896ce1
bc30052b
3d9b8b0a
3db944f0
bdec5dd8
3b366d83
3b95b551
3db52e6e
3cddf7e2
3d334548
bce22096
be05cf8c
bd642be7
3d80b9bf
bdd946c8
3e37e717
bd33a85b
3d423b1f
bda67ff9
be152622
3c947f29
bd9af2df
3e733bac
ba39b3b1
bde3bb01
3dfe507e
3e1a025e
bdff6d99
be7736ab
be4e0ffa
bd6be45e
bdcab375
3e436a13
bd5e3d86
3dabe47c
3c85636c
bd4c7e75
3d726dda
3d7d2c70
be18bdbc
bdc10612
3c8b1d05
be62dd5b
be300b5f
3d5bc6d3
be8d7e0b
3d9f1629
be467f9e
3d797d8b
3d2078c3
bdeb9c10
be838cea
3d8be401
3d8b05f3
3cc0cfd4
bcf4e591
be02ca17
37819abe
bde34587
bcac410b
3d88d9c0
be3178e1
bb3f7fe1
bd55981e
bd61fa25
be4b943c
3d77c304
3c9199a3
bd584760
bd8337d9
3e25f08a
3e605544
3e0e7ecc
bdf7bc7e
3e536d16
bd40280c
3dc78794
bdf2b5b0
3d2a51d8
bdecba0d
bc8578ba
bb9a2aec
bbd3e531
3df56896
be099194
3e20112b
3d7bd6ec
3e51091b
bdf6a4e4
bd386716
bd409c5b
bd8f214e
3b2a7925
be55fb5e
3dd0c132
3e51c46a
3df6af79
3e1088a1
3dba3c3d
3d6c67d3
3e045d24
bd8be71b
3cdaa668
be4669f0
3dbaaf02
bac16dbe
bcd3dd35
be024a83
bd23fa21
3b9e2cea
3e28105c
3dbd7178
3e8d1e03
bdbb4b5f
3e5abb13
bd851747
3db75cc0
bda843f7
3c1092ed
be17a197
bd89705d
3c18dbe7
3e08c88d
3cfe902f
bd851d7a
3c5ee90c
bc723b37
3e513cf1
bd6afe4d
bbaa12d5
3d85d558
be010e1e
3d2f6029
be39cc75
bb6b4e09
bb8a9e18
bb72a8c8
3e37840c
3e3af896
3e2b2c41
3e1ec957
3b972c9f
3d0bd7e2
bca7ab55
3d26ddc5
be31e3b5
bda496e6
3e7d552a
3e9cf4a2
3dfbd3ac
3dde7f20
3e458131
3d531146
bc2874d2
3e97fe4e
3cf5cf2b
3d412376
3e45da8d
3e1bafa4
bd9d0ccb
3da55dda
3ce1acc3
3df4d91a
3e1dbad8
3de3e605
3e36d232
bd4d017f
3d1ebb01
3db2ce8a
3e725bbb
3e046a9b
3db003dd
3dcc0c10
3d8bf19c
3defc449
3e282029
3e360f28
3ea6c64c
bd089e64
be4a8833
3ea37ef6
bce7066c
bdc1ef56
bdb48265
3eb32ff1
bd5885a5
be87b15c
3b57f54c
bda5fa58
bd4d6b3c
3e1db822
3de1328f
3e4c47b8
3dfcfa35
3e3d691c
bd62b3d7
bd9b322d
3f1fe748
3e658d5d
3d7952c1
3cea3094
3d6e1082
3d0b2da6
bd883c12
3ed40c7f
3ed4078d
3ddb52f5
3dc2f83c
3dfe0585
3e617179
3e153661
3e6e1d87
3dd6a49f
3df8ab5e
3cbb1602
3db6774a
3e6976d6
3e1418f7
3d755422
be4364a6
3dd65e18
3d2a493a
bdd19462
3da44e24
3ddb45a7
3e95573b
bd55f31a
bd16f9a1
bc47a857
3d5e3233
3d965eb9
3e19adc1
3dc08829
3d02844f
bdbce47a
3db263a5
3d13ef78
bcbe3a12
bd83d3c5
3dde331a
be1bc5eb
3c9e48aa
3be9d634
bd6028ab
3e0ebc41
bcc24561
3e2212cf
3e26f725
bdbf9b4d
3e4de708
3c1bc3f5
3d4a7a71
bc90771c
bc233702
bccef144
3bb490ba
bd91f9ba
bdea7452
3e0b423f
3d8260b5
3dba82e7
bd6d66c9
bb872212
bdd9118c
bddaf0ef
3d87fa05
3e5bfa71
3e821b30
3e7022f2
be3a9c54
3d686f46
3dbd6435
3a32b83f
3bcf9f61
3de1e397
bdb62de2
3d2e28d6
bd8d9d7c
3e2b010a
be12f9ce
bd9d0902
3d96a7ff
3def56a6
3e4bc064
bdc52ed2
bcac2560
3d29a710
3cd880e6
be30a1cc
bded07cf
bda82bd9
be0d381d
3e0baf34
3d47d962
bd990237
bdafc3e1
bd18dd3c
3e44cf22
bd10c725
bd82f8e2
3e1c1dd1
3d301340
bddcc5b2
3e23b29f
3cd22d05
3e2376a7
3c42bab9
3c6358b4
be4713f9
3c45c363
be2971ee
3d44f39f
bd42a885
3d07edba
bd92caf6
3d039098
3d352246
3c3995ba
be184772
bde1a0f3
3c78f44f
bcdf9d81
bd229ec6
3d8314c0
bd1ba8e5
be259e5a
3dae199f
3dd25f0e
3c29d7b1
bd8b45c4
3ce5125b
bd375136
bbbec03d
3dfbb233
3dfeca47
3e66c188
3d9c9f4e
bdd70810
3d9ad065
bd88df2a
bcf182ea
3c88d84c
3de4a301
3db03ecc
bd35c194
bc87b3f3
bc4a111a
3d237b9a
bde61791
3d051d43
3dbdc51c
bdbf23f6
3dd9d493
3e1fc473
bc8ca94e
bd632451
3deda14b
3dffa224
3d13e6d1
3ddb6cad
3d08a978
bc3535f0
3d2fbe0e
bdb7dfed
3e4e1da2
3c0c6baf
3c7f3a38
3de286dd
3e0f2aba
3e72fa1e
bd283445
bc753ddf
3e531124
3d7b659e
3d29ec69
3deac4c0
3cdb60f2
bd900c40
3c92b8ed
3d85c296
bbf0ce8b
3e798724
3d8b3dd3
3dd0767c
bc1b330b
3df78e80
3e2d3098
3dba86e0
3e2aeaae
bcf50701
bccc1906
3e00dbe0
be1d61e2
bd971ece
bd968e73
bc8715df
3daf47ae
bd2e4080
3d8c5623
be7cc754
3d14bd2d
3e01ddd6
3d531b62
3e441bc1
be4793ca
3c99205b
bdc1079a
bd4f0c20
bd834004
3e08760a
3db96529
3d36868e
bb725bb3
3ca05ec5
be0aa965
bd88a204
bd469d41
3dc61169
3e191833
bd47b01a
bd40fe00
bd0b47bb
3df87819
3cb6a8cc
bd859f9b
3e65adee
bda04794
bdf8e276
bd8652b6
bd059470
3d1c3037
3d1aab9d
3e8b6ba1
3cbafaee
3e3f402d
3d3f99dc
bd02bb57
3d941c98
bd26af37
be2b40d1
bde799fd
3db240c1
bdc566cb
be36bc65
3e4c09ef
be002da9
bd467ddc
3d165394
3caa0e8d
bbf2e928
be01911b
be13ee40
3df48d5c
3c265c14
bc5a6f2f
3d84fa60
bcdb8827
be041ae8
3ca46667
3e1f20e3
3e49d446
be7cb03d
bc8bf105
3e0f8480
bda62198
3c76ccc3
3e44d669
3d64d83a
3e407407
bd45840b
3d0681b8
3e2c7ccd
be161bfc
bd7e55de
3d7c292a
bd6aaf28
3cf47210
3cb5fa2c
bd8ee335
bd40ec78
bdec0f3f
3e39ca61
3e3ad0f2
3e61752b
bd4f115f
3da73180
bdff0552
bc30fa39
bd3fe8b9
bd16f874
3dbd3c1a
3baccd0f
3ddfdd93
3de36bb1
bd863f42
3aa0d7c0
3ddf4136
3e43579a
3e4436ad
3c78ca54
3b5388ee
bc702e3b
3e311cd3
3dd1369f
bdbbf78f
3d536772
bbfc70b9
bc8b1609
be0aedec
bb5c58f5
bda05be9
3e4fdc59
3e07b39c
3d634fe9
3cf7dd9b
bd84e4ed
3d8f368b
3d6eb79d
3da0404c
3cd51f5d
3ab25e15
3c9289cc
bd4d5480
3babe496
3e828f6a
3d5fedcd
3e3a3b80
3df7a668
3e31688e
3e0f0bbf
be1752fd
3e050a73
3d8e3063
bdef8aea
3e057549
bd8dda02
bdcead5a
bcfba91a
3d3c382f
3e7e208d
3cb79168
3e176d8a
bdd170c1
bdfa0b80
3d78472d
be604f13
3cd99caa
bcd67d40
be0226e0
3e0755c8
bc7527a8
3d3d91b5
bca6a90a
bd4fc176
bdf00aaf
3dc05bfe
bd816df6
3d9575c2
bbb0e870
3e2a6070
bdbd5b11
be37098c
3e354a51
bba9d447
3dd32a45
bcfc189a
3c55686b
3d9c7e1e
bdd6a99a
3e0c6dc7
bce93cf6
3e2043f6
3e34a0c9
3db5e203
3c7aeaf8
3e704796
3c9403b5
bd8ba08a
bc91c26c
3e73b64e
3e03777c
3e2f5c57
be0efed5
3c365ef5
3e338883
3e0a0c34
3e4f8ff0
bd8f3841
bd417e9e
be0bfc48
be1be632
3e0762db
bdd6db4f
bd6d8615
3c56ab1f
3d576dbb
bd8cdd70
bd3c1453
bd111733
be2f5964
3e14fd7a
be488893
bd309266
bb9edca2
3e9ff093
bc8c93fe
bb4f2d60
3e7e3fa3
bc033b8d
bcebcd66
3ce0e782
bcd8faf7
3c424840
bd93edff
3e82dd56
3e3a40b5
3d064426
bda435cb
3c8765f2
3d9ce291
be0e063e
3dd07a2c
3dfd6e09
bc01b5cb
be5b8069
be0e5db6
3ec4e919
bda1dc23
3dfda4d9
3dcaec10
bcb7eaeb
bc9de525
3ce83bc9
bcccc474
3dfeee30
3e327ab5
bcfbc056
bb6daaf6
3d524ae6
be154722
3d778f75
3e4ef659
3c3b60b4
bcf98b43
3ce231ad
bcff94d5
3b160750
bd0e0ad9
3dc5c86c
3d06d570
3c0ea327
bdc339fb
bdc448c0
bd573473
3da0ac6c
bcd4cc4c
3e5e02e1
bd7bdfdc
bd84e81e
bd5fc708
3bae04a2
be433841
3e300981
3e0b7e4f
bceedfa6
be335efc
3e18cfc1
bdc4f8c8
bc342cc4
3d9b8572
3e0a91e6
3d19566e
3d880a22
be153cd7
3dca3be3
bb3499e8
3d4202a2
3cf1ba34
3c99204d
be35afc1
bd930c2f
3e019331
3dbf76b4
3dab9703
bdaecaae
3d412800
bdb3484d
bd890b1d
3c12937a
3cd23c67
bda1d6bd
bde423dc
bd99b3a1
3c43ee19
3be80532
3d7f612c
3d91b684
3da7eab6
3da7708e
3d2f680b
3e093f48
be10a40d
3df96b20
3c9a157d
3cd3d208
bdadfe31
3ac0a2dd
3d0f3b39
3e1368cf
be2c2e1e
bd002482
3d7cf12e
3de1a70b
3d56c5b8
3e73a8fe
bde9b402
3d13eb10
3e87d773
3d97ced8
3db1db12
bdd96905
bbc0a052
3dc132ca
3e2dd540
3e9a9d33
3b2ce0b1
3e06640b
bdde933a
3da4c93b
3ec136ae
be257a8d
3d624edb
3d268c69
3e0e3bfc
bd0c8419
3e0ab416
3ce6e382
3d2e8d7b
be4cc780
3c4f4282
3d3d30db
3d84e561
bdc8e8a5
3d82d62a
bcf5e745
3d87797a
be02bc56
be043e07
3e0c90c8
be3ab13b
bdae9a0a
3beeae2d
bdbf2630
bd806950
3e9b955a
be13047a
3b78b2d6
3c8b3e5f
be0a6b9f
3d616f90
be5c7607
bd73adda
3e819493
3d27ce25
be467800
3e1dcebb
3e6ffb4c
be6a60ee
bdaa2443
3d9c847e
bd778264
bdf3fe66
bd2b0a96
bd1eedfd
be470992
3dc7327d
3dc568a7
3e30dfaf
bd006de6
3d547c8c
3e2762d8
3d6721a0
bd95a06c
3e103ee0
bc67b908
bdedabf5
3dc7b363
3d272d56
3e0bb4ce
bdb7452c
be477982
bcb4ffee
bd3ec6a5
bc7665f9
bd4ec8e5
bd66cbe8
bd0457ad
3d106ee0
3de4a54c
3c5117db
bd198719
bd75f677
3dbd0bbb
bbb08e85
be45fd3c
bda2febd
bd0f6aba
3b98824c
bd5b7d01
bd2deed9
bc6e58ec
3d0d4ca8
3cc5adbd
bdacdc63
3da31550
bd275da4
bda937b9
3d83f254
3cd9ff80
3d8b62da
bd47c47e
bd5bbde6
3cafaa7b
3e271362
be00e965
3c7d936a
3e17caba
bd19be9e
bdb2a3f0
bd303f48
bcd9f619
3da787fe
3d37c13e
bd191916
3d6089cd
3dc2934f
bd0e8cb3
be01404a
3df6c47a
bd1d1ffd
bd627e71
bcd4488f
3d199e9b
3b75d7df
be3cddee
3d51c89e
be1c5c79
3dc4e9f7
be3e6fc3
3dd66845
bd2d591a
bdacf260
bdd06afc
bd4a96ba
bbbd3a31
3d35b516
3d929929
bd0ef64f
bb19e3ec
3c5a0016
3e523ea5
bdb72bb0
bbef0a22
3de1b896
bdde77f0
be561094
bba9c5ae
bd629923
bd2113da
3df44ea9
bc41cb91
bd5060bd
3dd71182
bd45e7d0
bdf1cde7
3da41237
bd3e405e
bdbed10b
3deb78d7
bdc6f2bf
bc07a284
3e06ccb5
bdda3596
3d4cc45d
3da9e6da
3da8a72c
bdba35bc
bd2c3771
3c0996a4
3e228bc3
3e360f8a
3cadb4f4
3cf68c28
3d9f994d
3ca22359
be220972
3bf94fca
3d3c5594
be484985
bdaeff29
be1473fc
be0a1180
3dafb065
3d0cc2d9
bce70d93
bdb46506
3d13cd86
3e2b7e11
3e198037
be2c0b76
bc79a7a8
bd60ec73
3d841470
3e00905f
3e5cbde9
3d08145e
3b00203c
be47e73f
be3b9df5
bc0159c3
bd38e202
3ea38b7e
3d4966cf
3ebda5d5
bea80d9c
bc61da72
3c97a248
3dbb6c70
bdfccf5d
be05c698
3d7a535f
bd9b568a
be1fcf34
3e5cab71
bdf0d5f1
bde3c7ec
bd855b19
3ecedbfe
3e5de0b6
bd874948
ba7ee7e9
3d0f539e
3c97b027
3eaa1fb0
3d94766a
bdd5224e
3d5dc8ca
bdd4db41
3dbfd207
3d94c9ef
bd37474f
3df262a2
3d1f2115
3c2fd887
3e5c7467
be1722fc
bdbcb29a
3ce83d3d
bc9389b1
3d9473e9
be66ea81
bdaaf722
bce95344
3e049d22
bdf9178b
3dd965fe
3dea868d
3d4594e2
3e5a9f89
3ea77c29
be08d635
bca1166f
ba5e9d6a
bd653335
bcb3bf88
3ec2d65c
bd8b6284
3e72bb64
be4c380a
3db546d9
3e01f092
3decde64
bc189572
3daaac0a
3e05ff61
3b8df29a
be7244a3
3e23c583
bdf08092
bd834319
bc7cf203
3e01e5b5
3eafff5b
3d0cb3c7
3ed3c76d
bcc06b1f
3e84ba93
3d30074f
be68e05e
3d6a23b7
bd4f2353
3e42b6ee
3dd2a369
bcb13d2d
bd53de00
3e57180e
3e95c65c
3e468899
be59ac7e
3e3762af
bd6ec22f
3dd2b84d
3e931a58
3db36955
bc8c4d47
3ec0b2cd
3bd350ea
3e770379
3e0b531f
3ed4f0ad
3e054ef6
3e4eb0cf
be1aad87
3daa5e44
bd1e5787
bba61015
3e196db3
bdace93c
3badf1ff
3e9da7fe
bb893708
3cba8173
3e09b58b
3dff97d1
bdfcac89
3d1b9dc7
3dc6a0ce
3d9d4c12
3e0e3115
3cd36eca
bd555df7
bdbb09dd
be05c7a7
3df8c474
3e362f61
3e01ec2c
bd487b4a
3e9c26bf
3d8db864
3e67235a
3e0fa1cc
3e38fbfa
3e10745a
3da35f27
3e201f4a
3e617e77
3da14e18
bd326394
bd9946a7
3dcc52b8
bde469e6
bca84c3b
3dc4a976
bdae38e8
3e178e41
be34d048
bd807e5d
bd9525bf
3e209fe5
bec80415
bd3f4087
3dfbc65a
3ec647ae
bd7b0499
3d86c99d
be215572
3e0ea92a
3e7ca415
bde84884
3e411cd0
bea4e116
3d529ece
3e6cb050
3d897e2b
bd6fbae6
bcf940d7
3e72092a
3c3bca71
3e58ec9e
3dde6f5c
be206f0e
3e7d76f6
3c9cbda2
bd0edc6a
bd1762cd
3d51f526
3da8301e
3e3ca245
bd9d5249
3dc0bb8b
3dfdad36
3e664215
be1b6ba4
3e5eb38c
bdc8dc54
3ad418c3
3d765371
be1c1ce3
3d92073b
3e47ba75
3d7e13f0
bb059c10
bd89b387
bcb61194
bcd028bd
3c60726d
bd04e55a
3ce48176
3e1ce453
3d3d32b6
3d82ea90
be00b4ac
3db90800
3daf9c98
3d26ecd0
3ce1227e
3cee663b
3e4a3282
3dcd25b0
3e3ac709
3d83a90c
3e2f14c9
3dabcb21
3c9a1601
bd1aa41d
3e7c6010
3dac272e
bde8afc4
bda3cbea
3c838c76
3c0563b0
3d818664
3c0d9c80
3d5fefd0
be178ac5
bc07b222
3ce30b7a
bdbb8bb1
bccff616
bd603ddd
3d8f2700
bc860f21
3d8b0867
bd84d584
bd49e20e
3e0b5773
3c9d6859
bddad605
3e23d1d7
bce6950d
bd4c2d33
3e869fbe
3dd73975
3b270a02
bded31a7
3dc70fbb
3c6daa16
bca4b383
bd500b4b
3d531293
3dd7d61f
be15e012
3d3ae7db
bd76a6e3
bd6bf3df
be125a33
3e25e972
3d62bf0e
bd147f22
bdf464cd
3e812f47
bd5d100f
3d8469f6
3e4024d5
be6b4ec8
3d059e11
bdd7152b
bdb6aac9
3e51c3ea
be0f5df8
bd083a8a
be4ff105
3d0e1e1f
3e81fad3
3e209fd4
be28b43c
bdc78f9e
bd5eebe1
be104379
bcb26e37
bd770052
3ed3068b
3c954fc6
3e9ed617
be984970
bdaa4f74
3eae5341
be456a19
bde06e27
be1be348
bd84ca7f
bebba50f
be13bcad
3d80d547
be599934
be9ecf92
bdc91f6c
3e3af98b
3e8b4e5b
3dc0a9f9
3d8e0251
3d7b7f02
3ca7b946
3e703560
bd8e5f1d
bd56da22
3e0588ef
be0eb9ff
3d4672df
3dacc140
3db6afa0
3e523aec
3e0c0630
bda1a241
3d9e2c70
3e04f46b
bda1a114
3cbfaad3
3c28981f
3cdfb668
3b724293
3dcef0c8
3bca079d
bd9efbbc
bd21ec13
3e402a99
3c9ea056
3da6ca30
bdffddb0
bd7985ed
3e0b670b
bd62a104
bc88027a
bd9cbeab
3d6d2685
3cdd8850
3e477d06
3d294bab
bd8ce644
bd97ab74
3e0e76f9
be1a182c
3da6da2d
3d9e3fd6
bda13e50
3e60e490
bdea7554
3d6ed90f
bc160601
bba30eab
bcabf41e
be560ab1
3d42dfbc
3e6b2124
3db210b1
bd745c10
bc776feb
bd3ae082
beba643d
3de9aca3
3d3a1557
bcb172ef
bc772eeb
3e83869f
be29bfaa
3d7a005d
3ec2bb18
3d8d252d
3bcbbec6
bd89ade1
3d5b3b50
3da0230d
bd33f787
3e06bcf3
bdde6430
3cb8b2be
3d8eece2
3ea5a0d3
bac2fdb8
3e836144
3da3cc00
3dd5ddd2
bdce8a86
3e066ff1
bde4e823
bd4e1d0c
3de889c6
bd2a8a0f
bcf1985b
bb889f3e
be8801a3
bd965a39
b8abf0cb
bdb0d921
bdf0a2bf
bcdf73b2
3d56f4da
bdd3855f
3e38ac13
bd7fe421
3d82a448
3c294c5f
bd78baf9
3cca4d73
bd6b7cc5
bd38c36d
bdae2767
3d3ba054
be09c3da
3d6b0f14
3dd7b8bb
bd854340
bd3436b7
3d85c033
bd3248ef
bd6127d7
bdb8e16f
bc9c81e6
bdd2422a
bdc28417
3e0526ed
bc900d4a
3d10fcd6
bc9214f8
3e0d82d1
3dc154d3
bde8a536
3c91086d
3d414576
bd9b511e
3c311124
bd8d0547
3d08e3cc
bdec390b
be3aecd1
be3b7c48
3dc70f3f
3ee7027c
3dd67e38
3ca28118
bd11a312
bdbfce58
3e3521c5
3b84cf3d
3e028f91
3c0e504c
bd9b0458
bd361ce4
3c6a7377
3dfbb5ea
bd0a0e7b
3f053d11
3e95d29c
3d67ae6c
be2737c9
3e24d664
be1e47e2
bd75a469
bd10dc8d
3da978ae
3bc03a2b
3e7c97e9
be07dd3b
3c278fb7
3dc48499
3c81fdf9
bda8d473
3c639468
3e534714
be022b5f
3cb384b6
3d9504a6
3e28d764
3d4e0c43
3e1b9708
bcedab31
3d96a2e8
be191546
bd2b0980
3e028955
bda9d1c6
3e297be8
3e1feaef
3eab7acb
be417d61
3c5be330
3e2d70fd
bd209d00
be6bc3c2
be389583
bdfa4ed8
bd132336
bdfd6fb2
3e14b1c9
bba744cc
bd47f6cc
be0aa4dc
3eeb2412
3e568562
3d01fb3d
3d026f7c
bd149873
bd826d16
3e497aac
bc8beb26
be06ba7f
bd9122d9
3a4860b2
3e48b44c
bdc349ef
3c8fed66
3d9c9e40
3de93ba7
3e0547b5
3e824501
be1cb8fb
bd80ee58
3d806081
be88d8c1
3e58a4c9
be8b9d00
3e046a0e
3e417b5a
3dc050d2
be725f4b
3d145042
3e22f89e
3c9c57c0
3d896546
bd90266d
bceddaba
bc83f51f
3d86320f
3e2dc41a
be6bcbcb
3d8f7642
3de702e9
3ec47651
bd31a27d
3d2ed5be
3dff19d1
3e2b3279
3cc7f058
3dd11693
3d8d24c6
3e18d8a0
be0a8373
3d8d7db6
3da6ed77
3b8a9cfb
3d9b95fe
be6cfcac
3de7255c
3dadaf09
3d1d1670
be06fd73
3c8903cb
3e95dc03
3d86d65b
bdef787e
be0c26b8
3d8102ae
bcde22bf
be0df44d
3e2ecec2
bdb299d6
3e28211c
3c2cd66f
bd1b7aa1
3e3339b8
be6aa3bf
3dceda9b
3e0a7140
3e297ca4
3d1190fd
bcd00a1f
be14e0b8
3cc0c3c1
3d4e1604
3dcb312f
3d8c58f9
3e618674
be0ad89a
bd6249b7
be11bbad
bdb28305
3e042362
be13e2b4
3e7d500a
3d91851b
3e235ca6
3c99e382
3d71fbb8
bd20aad7
3e765ca4
3dff4eda
bd4ab2d6
3d7579ae
3e0913f5
3cf12873
bd3c058a
3e49b711
3e1f397d
3d80ac52
be2c433e
3e11d06c
bd932529
3db8d06e
bdba6526
bda15992
bccc7ca5
bd9c206c
3da68069
bd0a8286
bc895e55
3d8fec5b
3e14d4e2
3de97aad
3dc1f2fb
bd14cd38
3e090045
3d3cae47
3ddc54f9
3e4f6b0f
3d819c75
3e4057ce
3d9402e3
bd0567cc
bc27d49c
bdb73a3b
be1efc79
bdaa18c2
3c834a16
3d1b84e2
be377e16
bdc38d56
be13e64f
bd46a0ea
be055c33
3d4c177e
3daaab63
be1033ef
3d1eecb9
39a01e45
bd393997
be77a236
bd6a4fb1
3dbdb656
be00c323
3d01fa1f
be183334
3d4cc452
bd0cafbe
ba075af4
be0cd88f
3dee4a18
be9d2ac3
be5e7903
3d82be1e
3d90dc9f
3c61dc35
3cd639b1
3d75f2a1
3cad42c3
bce14cd1
3e1c6558
bd9b6ea9
be0d7f51
bbd90392
bc82ec46
bdcbe203
3ca3c424
be2d60aa
3deb3399
bd6352ab
bde4b365
3d051acb
3da1ca15
3dbce4e7
3ab6af0e
3b6b2a0a
be61cc50
3d7311cf
ba168a11
3d94e017
3d0c2c6a
3d7c07c2
bd4d8f50
3d03ce76
3db43633
bd5c5af2
bd0827d7
3d0bb836
bdd5d34c
3cd27d8b
3e36f720
3d0801c0
bd18481e
3c22fe30
3d38ce55
3d5b7d58
3d61cd91
bc387f17
bced2b10
3df9d8f7
3e449dfc
bd17b77c
bdbd05c0
3e45371a
bdef7bc5
bdd8f760
bc086274
bd004693
3da317c7
3d35d97c
bdb70dd5
bd047649
3e2d4b3a
bdedd1a1
3db5d7e4
bdf3eeed
be1cdb55
3e41f503
bca94001
bb969daa
3ce131f2
3e1ae099
3d5389b9
bdb8a472
3d2ddf95
bc0ebeee
3e1fcbf9
3d35e68c
3d2ef673
be5390c9
3e16c37b
3ca5bb7a
3e8df2a6
bb36097f
3db2f0b4
bc406a24
3e0535f2
3c35f713
3d43984f
3d27f2bc
bd3b45d8
3c540849
3d22c88b
bd8470b0
bc92c221
3ddb37e3
bde0e38a
3d3e5053
bd834e07
3e9099dc
bd81140a
bc1751f2
3da5ed34
bdafe74b
bcc0fde5
be48bf14
bdab507f
3da25db5
bcb395fb
3d8692c4
3df6b269
3e9166c0
be119c58
3de81656
bdb87882
bdd579b7
bdb8ac71
bd970f02
3d828495
bcd3425e
3d3c4146
bcb6bab0
3eb11b9d
bd903e25
3e44af9f
bdc46882
3d3dd985
bdc76999
bdb6eed7
3b14f5ed
be1cd1de
3ea5ba64
bd0d403e
bdda1e64
3e811e58
bd93ea5a
3df22942
bdd128ad
bcda4d66
bcaf9fee
3d0cbd4d
3dbfab2f
bc4e5244
3e88a265
3cce17c1
3d8d7ec8
be07812a
bdc88c35
bc806b23
3e4f10ec
3dd11fa7
be0f1196
3e9044d0
bdc3d975
3dfcf0d3
3e536128
3d9f05da
bddaf2ed
3da9fa4b
3d736f5d
3d8e2dfd
3c82d049
bdaa3af3
bd2996c7
bccdeedd
bc6afcc9
3d392554
3d9abe52
bdba6d3a
bcd5d24c
3cee344a
bc16c718
3e80bcd2
3ddb92b0
3dc1ac68
3d929a96
bd5df7ba
3e1db07c
be473c95
3e7a086f
3d73b292
3e8ee124
3d17d208
3ce3c302
3d86926c
bda58c8d
bdcdf997
3d7febdd
3dab61a8
3e913c1d
3d0fb515
3eac7e16
3dbcff2e
3cfec445
3c446dc2
3d313b37
3dec3ad7
3cd4a4f7
3e2c85bb
3dee3ac5
3d82053f
3dbeae01
3e666f47
3db8d865
3e22d6c6
3ddf5eca
bd14e46e
bd18e7fb
be5047cb
3e805a00
3e22110e
3d896366
bd5d23eb
3e5eacfe
3d9e8589
bd8196ee
3cba62d2
bb0a3f0b
3e1caf0a
3bc8f70f
be71999b
bd849098
3ec9f965
3e126380
3ddd8332
bd001fb2
be247b17
3da3f09f
3e059769
3df3c7b5
3d9a8654
3d3692cd
3e3be189
3dee0502
3c8dcc0f
bda277ca
3efa6461
3e53466c
3ceca7bf
be321758
3e428ea7
be028f58
3d904a5a
3d2c4795
3e12b312
3d9bed79
3e7de125
be1d5efd
bdea980e
bdeff8e2
be3507d8
3e876803
3d2d15ef
3e019243
3dcfea8b
bda520aa
3afeb448
3d5affc9
bd4f35ef
3d7cebf6
3d9b78f6
bd8f4b0f
bd90fefa
3da1ca16
bde3b41f
bce390bd
3d3e401c
3e06a054
be02a210
3db3a030
3d617a2b
bd15f247
3e116686
3d22a8c4
3dd2425b
3e3c03fd
3d3e7b4e
3dac4894
bcc3babd
3d026582
3d85e590
3d0dbc09
3d78059b
bd8cc0f9
be511866
bb12fc1f
3bb120df
3e0e527b
3d820ec0
bd52aec6
3e93edce
bd4096dc
3de8c4b1
3d3c1bd3
3d976bb6
bdc0e2d8
be514dd4
3de9d3a0
3d53b3a6
3d96691b
be1ed7aa
bcfa9cc7
3e23892e
be1da04d
bd805602
be6207a8
3caaee46
3d17c38b
3bca19f3
3d9850fb
be4732ec
3da5b6d0
3d6602f9
3d70afb1
3e9b2b56
be8c6fc2
3d8948d5
3daf74af
3c33ef6a
bb3047c2
3db0cbb3
be62a18b
3e64ea65
3e1c03cb
3dfc841d
3d95c860
3ca7c656
bd48f33a
3b2e2568
bd93db80
be11a29d
3ed120db
3d430c0f
bc412ecd
3d276995
be01a0f8
3df86aee
bc8cc7d1
bdf68e1e
bd6e2a0e
3e3815f5
bdaa797d
3d8af79a
3d8d2dd7
bd8677d5
bcf817c6
bccb70d5
3de6e4b5
bd0949ec
be358c30
bcd9c9ec
bd6c14d8
3d6d8274
be15b433
3dcbb36c
3c944a49
bd89333b
3d6dcd09
3c971b3d
bd5c4dfb
3d86795f
bcc8fc7e
3d8fab6b
bcf3b086
be193783
3d012702
bdf1e71e
3d4e6a08
3d5308c9
bd9532f4
3d177e78
bdd5b8c3
3daad94b
3e344dc4
be0df784
3d3d181f
3e539572
3de44c47
3e052111
3e2f5301
3dcb9d3d
3c6ba476
bc1856e3
3d66705e
bd037408
3d008c9a
3df01055
3dd7fef1
3e6f9d0e
bdc02b58
bdb42f99
3df095de
bcfd13c7
bba11101
3e0cc389
3cd83526
3d85bf31
bd9ec3f3
3e30ae72
bd7d83f9
bd3195b9
3ddfa692
3e9febbd
3e19bed9
bbcac0a6
3c5e4e87
3b85c1b7
bd8f5fee
3e39b59d
be16dad5
bc6bc413
3d8790d1
3d7a91f0
bda6a1f2
3e688037
bd0d4774
bd5715e0
3dc3f4ba
3dbbb25d
bdda3fa3
3da09035
3dd3e8ab
3c599fdc
3ca94ba3
be10b4aa
bcd0cbc8
bc70144c
ba83d26f
bdb696f2
3e3fb1f8
be063599
bd9b98b2
3db8215b
bd54220c
3d6ab1c1
bdcd1589
bbe393f7
3db590dd
3e6c3a93
3e334046
bd260414
bc18e209
3d87f82d
ba17a66a
3d787b54
bc45326b
3b590f04
3e15f8bf
bca9028c
bd1d52d5
be2c5487
bc6c849e
3c7edbf5
be16bbb2
3e4c502a
bc49b612
bdc73911
3e0a0bb1
be41dd57
3d5a9d36
bc9d4881
3e2e069e
3e017311
bca561a2
3cd4ef26
3da723e3
bc85fe2c
bcb97e06
3cc27bb3
3e44daf3
bcc4094d
be0dd1ef
3da36ff9
3d6cee45
3e268a7b
3c9c02c9
bd9a1a94
3d9c3482
3e301a06
3e458bab
3cf82063
3ae8ca34
3e0a8fc9
3dcbd515
3d435c84
be0245fd
3c889fbd
bd65fa3f
bd6e384b
be32813e
bd3920ac
3d3603a5
be3b845f
3d2daf32
bdd7cc4d
3d3c84a4
bdfe4baa
3dd69b99
be1315d2
bd81c76d
bc7e97e8
3e44ec12
3c29c6cd
3d5ab4dc
bd8b514c
3e093ea8
be3447c4
be2364ca
bd7b15e6
3e23a8c7
3da50e5f
bd0caada
3e9416f1
3d7cdc7f
3deb5a16
3e4f3300
3e1dd3a4
3e8c16fb
bcc33464
3e319677
bcf3964b
3d7ae353
3d2a4a61
bd93efe4
bc4d93e0
be4ea7b5
be330817
bd119c41
be09db4c
3e4e9c6c
3e492403
bd5ede20
bd85c691
be61b107
be4c291e
bbee331c
bdd6da33
be577505
bd62f6c7
be8450b3
be05b8d0
3e18b9a1
3ee42568
3d66e745
bd9fbb36
bd37dd38
be8894d0
3e06e91b
3d1d0c46
3e21b046
3e730877
3e358fa7
bdc8f553
3e280614
bc86a366
bd5f8fdb
3b4e0431
3e32a470
bb2e6b4a
bd1b59c1
be0190c1
3e518ad8
3e44edbf
be677463
3e52262f
be609588
bd90b5d8
bda42100
be460e8a
be2b5a3f
3e0e6fdf
be2f886e
3dc6af05
bcbbd41d
be308f99
bd3a73db
bc46da23
bd55a8f4
bd4e6f10
3d017bef
3d9ae3a1
3e1a6f83
bd6a7d55
be010da9
bb606cf2
bdee6817
3d5f753e
3d4dcc6a
bdad2ab3
be0a8384
bd0e8cb4
3d802073
bb4f6bff
bcfc766f
bdc75d11
bd991f26
bda0d9d4
bd87872d
3de75994
3e0cbc9e
bdda41c2
3a9b801f
3e43fa6a
3e5bb4f8
3e08256a
3d3bc187
3d10c421
be5f3f21
3e43373a
bdaec270
be4bc158
3d3b5875
be1370d6
3d0f91d6
3d583066
bdd1b6e2
3e0e0586
bdc902f2
3d82cdd9
bd8cb508
3cc2b4c4
bd28c4e4
bdab8741
3e1442b9
be4827f8
3ca38708
bb89dfd1
bd3b6990
bc0e5996
bd82c250
3d9e1d15
bbaa9ad4
3dad7664
bd9a967d
bdc2f3ef
3e2c10d9
bcbba3b7
3dd4670d
3e39d69f
3e119685
be251084
3e0cde77
bddc021e
3d5df2a2
bdb27a32
3e1c0b32
3d7e74ed
bb941a9d
3de2e1f7
3dcd73ea
3ddc0a27
bd63ae25
3aff87af
bd8c16f3
3cedac68
3aab4f8d
bcfe9b42
3dd361cf
3c075302
bdc11134
bddca2db
3d1e8ccf
bd360320
3cc7b835
3dcdb9d5
bd647455
3cb26cec
bd0e315d
3de537bf
39d4226e
3d2340a7
3dad0a81
3e099d81
3de81185
3e90a4a6
3d15a737
3e0ed411
3dddcbdb
bd51195c
3e1a775d
3e435a72
3c3a338a
be04b0d4
bd56f429
3e232a1e
3d98de3f
3d9cc3d2
3d063c6f
3cc290b8
3d0fc7e2
bd8179d6
3cb7e6d9
3bc7fa99
bc21944b
be601e80
3dddcda5
3d656302
3d4abb29
3cf2d7ae
3e4cd03f
be5ddbde
bd983c42
3d9e69aa
bda335b5
3d0a421f
bc54a90d
3de2dbb1
3df42f4d
3d4afbf0
3d906d68
3e3c85d8
3e3fa68a
3e467348
3cfe976e
3dea8902
3ca7bc77
3e3691a4
3e8d2f64
3e497e06
3d710677
3e8ddeaa
bdeb9bf2
3e2c0fa2
3c827a78
3dfa65b7
3dbc73cf
3e80cc08
be0d29f1
3c027b09
bda7929c
bd015a01
3e2b208e
bcec3492
3bad0792
3be165b5
bdac37ff
3cef991f
bcdc2b17
3c06efef
bce7acab
bd0f7010
bd611cd5
bd4e1adb
3e17bfba
be5317cb
bd9d0d83
3e3c4818
3e511375
bd0f96aa
bd06f684
3dc34186
be297dbc
bd3653b7
be05e498
bbbdd60a
3e1fb83d
be39135d
3d3024f7
3de14890
bdb24038
bd597e64
3ddcfcf4
bcd5e879
3dc40242
bd0eb22c
3b8a8762
3bbf4ef0
3c6577d0
3e847971
be2fc417
bd647e27
be394d0d
3badc754
3d909616
3e8be22b
3dd11b28
bda29d8e
3e643e0f
bdcafcfc
3e8c4b9e
baf25c8a
3db13174
3c9dcd77
3d193e83
3d458196
bda79dc1
bd14fa6e
bdc99147
3d84057a
bcef1731
3dc5c045
3e27f994
bd8f7a00
3e1a4c7e
3de1acba
3d808fbb
be3c9987
3d4cff08
bdc31db7
bdb3fce6
3dad2d12
3dc222ee
3e381954
bca4ab02
3e32db31
3caa613a
bd4513b0
bd8f5da9
3da4a7a1
bda53431
be023e21
3e7bb708
be4544c8
bda2362c
bcef4acd
3d5e9945
3e1ba299
bdd83465
be012c11
3d89e24c
bc80f717
3d36860f
3d594f53
3da57874
3c067a8c
3d5c2ba9
bbfa8015
bd15e1f2
bd05f01a
bca2e264
3d6b681d
bcdd1f09
3dc5062c
3c79f57a
3d4d6c41
3d8b30f2
bdfd9c28
3c908d76
3cc83dfb
3dff16dd
bd78258f
3e23e4f9
3bb1139c
bd58489f
3cf4ae90
3e3351f8
3d1d6486
3e35247d
3d571e6e
3d067dad
3d8475eb
bd850820
3e3addab
bd8bf728
be0ea944
3d2975a7
3d59ff4a
3e78ec60
bbeecc2c
bcc3764e
bc42d15c
3e240f1a
3de2547b
3ddcf282
3dd90476
bdd669a9
3e2471e7
3e83d9df
bd1a871e
3d87279d
3d81a485
3e9a8008
3e172f12
bc4e27dc
3d9dce1a
bdb9fa27
3f079be2
3e47c720
3df88e33
bcd87d04
3d6a5f88
bd433d5d
3da08678
3e890e99
3ea440df
3e069c0f
3e4f6386
bdd5cbf0
be45f179
3dd989c7
3e2a5056
bd1125b8
bdb32bfb
be2fb79f
bd6f3d41
bd7c91bc
3d58280c
bda20534
bce3d894
bdb12d16
bccf9baa
bbc8a684
3d400fbd
be419993
3cd80aab
bdc69d62
be39021b
bdb3e87b
3d05969d
bdb5c396
bd9cb7ab
3dcbfa66
3c99a5f5
3df63af4
3c8120f8
bd531592
3db02965
3e49ece0
3d8da660
3e2a92f3
bd40df6a
3d988791
3e2cb7e3
bddaf56c
3e88a223
bcdb3954
bd81fe47
be2ad7ec
bcf27c2c
3d24cc7e
bd1258fe
3cff5e5c
3d9d3fc3
3a4df903
bc514e5e
bc5ebe49
bd305efb
3d4d6366
3daf0b0a
bdd12dfa
3c8153d6
3da44bef
3ed3f10b
3d9dc0be
bccdafeb
be63e5d4
be50062d
3e1417b1
3d6c3744
3e7a7a59
bbb3baf4
3d5e9193
3e0b6f9b
3e404550
3d851619
bc138690
3e007905
3df59719
3e5cdac0
bcf7bbe2
3d5e8afd
3dbe31cb
bcfe8185
3d4f9514
3e06e42b
bd3309dd
3e7557bb
3d8c8b78
bd5a7dd3
3deb8756
bdc77a40
3e8736e0
3dd06ff4
3d825229
bca3df91
3e0b0ced
3c8f34e2
3de4ac6a
3d9b91d2
3c617b65
3e0948bf
bc89b807
bd259ec1
3d2166b3
3d6f48e0
3e5025a8
3e29de77
bdcd8145
bda8e618
3e333290
bdb77f0c
bc342090
3e2e970c
bd72ec8c
bc1fd898
3e5cb84f
bd8b241a
3e02df26
3e1acda4
3da84f3e
bdcbd224
bc8dab62
be812136
be2ef2d6
be3883bf
3d8a39c9
bcacec23
3e2c5bad
bc9769ad
be74e2df
be16e056
3e73397e
3d24633a
bd0d4d07
3e5cd815
3e346f1c
bd792c7b
bcb5c06e
3c772f31
bdc714d9
3e87f0e3
bc04b634
bda31782
3e14c64b
bde8f33e
bcc4f570
3d29c6d2
be07cd26
be1cc120
3e5660c1
bb6811d4
3b0593d7
3e0ba088
3df1e7d4
3d30452b
3e633bcd
3bdccd87
3d9445a4
3de7f606
3e61c217
3d882444
3d5cef25
bd982115
bd996a44
3c8978b0
bd2c87d2
bde8c191
3dee2424
3e10242a
bc851bad
3e78e092
3cc92716
bdec4b42
3d0035bf
bd26a899
3dc11354
3d12f957
3d99ef7f
3dd04b21
3e7209a9
bdc0159c
3cd08692
3da911c6
bd515f18
3cf01a78
3d44188b
be2cd7ce
3eac85d0
3d836625
be14ce27
3e60829d
3da9f3f9
3cd19516
3e79a0c4
3da17af4
3d9696bc
bbee4cf6
3dab813e
3dd6c7b1
3b990188
3e29ef69
3df62851
3e64ee72
bdc28b08
3ddc31ae
bd6df114
3e04fd0f
bdc36856
3ca945ca
bd80e7b8
bc2c479f
3d39acdf
3d89fbab
3de236b7
bcf0e011
be4c39b1
3de90b10
3db858e9
3c180364
3d8c214f
3ce52ce7
3c7f561c
bc1abd5b
3dcb54a2
3d8d5c83
bd73e0d9
3d09afcf
3e243029
3db576a4
be31f531
3e577202
be1886e7
bd9096f0
3d13a0de
be113f54
bdc33b3a
bdc5876a
3a9ef456
3d4d2522
bcfed47d
3cc7a117
3e707291
3e0c4d50
bd164c61
3d31f061
bd56a1a8
3d19f8d4
be035274
bcdb5873
bd597f1e
bd3567fb
3df92da5
bde6fa9e
3d675783
3e010e60
3df486dc
3c31e972
bdbc7091
bdc1da66
bba90e0d
3e9860e1
bcef1fe2
bb56ad67
3ca98e9c
bddebf53
3df3f593
3d9adf07
3d473ee2
bd8c2737
3e09d3aa
3d8ae035
be2596a3
3dadd709
bdaf7f64
3d959439
3e3d43cb
bd498a1e
3cb826c6
be0396df
3e60bb67
3bbdb5aa
3e3b6107
bdb957e9
bdd3ccd7
3d85d09d
3e0fa7bb
bd8a663d
3e1b5a57
bd05aaaf
bdd2216e
bcfee313
3d560d29
bcef13d4
be1b69e9
bd48edd1
3d579842
be49e5ce
3ceb0498
3d23487e
3e4028c4
3e6099b0
be0f4a50
bde3dfcb
bc2ab87c
3de48b5d
bc3c29d2
3de996f8
3d0f695e
bcbdf2e7
3d410e8a
3d479fc1
bda81d8f
3e4c592e
be1c1829
3bb7c283
bc4e2b61
bdf18f24
3d628ebb
3d288ff0
3e21d50f
bd86cc55
3d9cacd9
bda5e387
bddd8639
be2a42f6
3e6fae8a
3cdf33c1
3e48d163
3c79ed55
3c3290d9
be90521e
bda6b4ee
3dcb3adb
3d637ca0
3cde9de2
3e2a7d8d
bd36ab4e
3da9aaef
bcd635ba
be17ddce
bdd43d57
bc9a43bd
bdfb80d8
bcf95ed2
3d1ea52e
3d1faa19
3ea3ad2e
be0de089
3d8375d1
3e101d81
bd60622e
3e236646
3cd8a196
bd0ff944
3e05065c
bcafd4d6
3dbe9f46
3dcf5d20
3e6d9a39
be4f0a32
3cb07e11
be5e4a3f
be852972
be7d26ba
be201a27
3e1dc25c
3e215944
3ddf3503
3dcc52a1
bccb9eb1
bdaaa4a6
3e8b5332
3bd4d9b3
bbe0808a
3d31c613
bd96940a
3e9b0c2a
bc5f3294
be4489f9
3db3e15a
3e9017dd
bd2470bf
be126a7f
bcd33426
be2e8824
bd213c0b
3d4dc501
3ce125c9
3d07db98
bd863603
3e1b396a
be130786
bde44f74
3c7cd2d5
3dcd2813
3db1ec0b
bdbec7d8
3c5034a8
bdb1f322
3e424d64
3c0f9c9e
3f12258a
bd21b1d4
3e3f3f0d
bc6f2e29
3b5ed1ba
be137768
3d92ed1b
bdd063bb
3d8dd970
3dd471b7
3cb7732c
3e127f0e
3d772c73
bd853c3c
3d0654bc
bc93e199
3d1f9cb7
be1291e8
3e0521c3
bd99de50
bc1f1acd
3e65650d
bd86c838
3d6c89c0
bd89dc28
bdced64f
3e5c7181
bd6c8a91
3ca27bc7
3ddd7195
bca2596d
3dd0dc49
3d7ac9a1
3d6c49ce
bd1da617
bdd8e3ec
3dc73798
bce8736b
bcb0a02d
be1da0a6
bb947887
3d603945
bd84f131
3d20e63f
bde6123f
bd95cedf
bd83e7b9
bdde07c7
be14dbee
3dbe203d
bd130720
3d845625
be4be1f9
bde3c1b3
be03965c
3d94110a
3b029148
bdc8f6e8
3ea061f3
3da95cb6
3d925052
bca513e4
3d3d2b5b
3cab95e2
3dd29664
3d83723c
3d90acb6
3d851e4c
be396a09
3e029db7
3d4c3bfd
be11fe27
bcf5c091
3c57cfdb
3cfd7377
be3d82da
bdfc1c72
3d099dfd
3e53772f
bccf5759
3c0444f6
bbd5b94c
3e89b8b8
3cf128b3
bcfd41a3
3d522d25
bd8bb1c7
be79f036
3d1e704f
bafc13e3
3d5dace1
3e8351e1
3e97e26c
be3b8d70
3d8e13b5
be63dfa1
3e8c770a
3e33159a
be238e6d
bddedc38
bcb081e4
3d73014d
bdea75e0
3ed560c3
be341bac
3e8ebf88
bdc206b9
3ebe5e2d
3e7e1c96
bc09cfba
3f0c1bf3
3c80f84c
bc84f5ba
bdda8c32
3b5d4bb1
3e2e4944
3d0f8fe4
3d27ab20
be86938c
be3b2d22
bd9fbf14
bded8889
bda77294
bc5086a6
3e04ce9e
3e5b6c37
3bd955e3
3d6a1efc
3d004624
bcac766e
bce73545
3de10453
bd2a28c5
bcf2103d
bcfcc482
3e89829e
3e1d5989
3dfce183
3d3f272a
bc8e6d22
3d9f56ce
bcd43615
bdd76c51
ba9b4753
bc9af793
3cd95dd0
3e89753e
3cd3736e
be66c94d
3e470ed1
3c56298d
bbe725a0
3db9132d
bd3e894e
3dfa930e
bdb8b5e9
3e56aac9
3d41022f
bbb1439e
bd9896a9
3e4b0d03
3e43437c
3defcfa6
3ce12985
3d261c4a
3bf5b958
be5f4be6
3daf93c3
bb270c12
3d83f37f
bbc0ddb6
3d8b8f3b
3e3715d1
bd81cb65
3d5d5158
3bd9c0f4
3e885ee8
3d42030c
3d72c6f2
bda6a415
3d7103f9
b9b20fa7
bea17432
3e8609b4
3b958a84
3e07ea10
bd7c6e53
3e6b6a06
3e24dd4c
3e165574
3e6dc2ce
3e43d225
bd3bb398
3b6274be
bd21cb49
3d45de36
3e53cbdb
bd67dcfa
be5fec32
be30c29f
bd28526e
be1444be
be4e742b
3bd91233
3e0d857d
3e27a017
be0a04a3
3c08f189
be4997a1
bbad2dba
3e152f77
bd61fb8d
bd00e27f
3e1473a8
3dcdaecf
3d26887d
bdbae89f
3d5e0d46
bd98e71b
3cb50173
3d85bec0
3d0f60e0
bdabb86c
3d4df38f
3c43c243
3cbd5843
bde4bd89
bdc0f52d
bc24ceb5
3dc02384
bd07903d
3e3097f9
badc516b
3e035e7b
3cd53c35
bdaf0d2c
3dc287e6
3cfff7fa
3e39d135
3b279c3f
bd07636a
be43e594
bd9ac72b
be1c4a0c
3d997840
3d756b0b
3e769bdf
3e0035ea
bde580d6
bd790608
bbd24842
3c53bf05
bd24cfb4
be6439dd
be733663
3e88db51
3e112d36
bdae0384
bd03d276
bd9f9e75
be505610
bdffd6a7
3daf283d
bd705d2c
bd659870
3cab34d8
3ec1a9d4
3e851864
beb46c70
3e9ca175
be1d0909
bdcceba1
bd978107
be0ccc17
3bb05d6c
be8bc885
bd10c989
be6d1bc3
bd1c8dbd
bde61843
3ef6b990
bdbd5b4c
3ea20dc2
bd555935
bcb308ec
3cf3b3af
be16ad6a
bdcbd438
bd44edae
be04c36c
3eef8bf8
3d41686c
3d93c25d
3d88706f
3e47e105
bdb832e3
3db5e3a5
3c4c6b64
3cd0a133
3e98b357
3e579cca
bd84436f
bcac5b43
bd342950
bd705c7c
bdfc4e21
bd823ee6
3d6c4a70
3da2454c
bd992bca
be1fd16f
3e2c945c
be097a7d
be6c5d66
3d5b5b04
3c0236e3
bb129c40
3e44c60d
3dee7868
be5c2fde
3d907996
3d567854
be0c3c96
bdce86d7
3d21e209
bc61c323
bd2c80ac
be17962f
bdf242cd
3d8a3d43
be1dcb5d
bd745bf3
3db3956d
bdc25952
bcbc390c
3e55a924
3d84f197
bda6dccd
bc1ae229
bcefbe82
bdaa1f07
3c611ac5
3bc9bc93
bdc92c19
bd8abccb
3cbd89a6
3e9801a6
3de410e1
be6b663b
3dc64be0
3d831909
3cf7969e
3d0dc00d
3cb3a769
bd86f640
bdd43f44
bd4ca58a
bd490b23
bdd64a6d
3d0381db
3e99e5c4
bd950065
3e387c62
3d92c540
3d602b7d
3db4ed30
bdd5c3e1
3dcdbc90
3d33ed05
bce9a935
3cfffc39
be12883e
3df899ea
bc1ec7cf
3dbb5ea7
be08ce4f
bd6d1b9c
3ddef34d
3d486d04
3eb66fc5
be05541a
3d0cb9e3
3d5bedb4
3c01f742
3e533c6b
3e574217
be2e9297
be17aae5
3e073aca
bd495128
3d2511ec
3d16aeb5
be018cec
bd816dac
3ddc1431
bd951929
bd28dd2a
3e0ca920
3d05165a
be0e27f7
be1b1de4
be1c0a33
bdbefbf4
be1c4ddd
3dfc9ece
3ded2dc8
3ddff0f6
3c5cc42d
bd098e13
3e89677e
3ca9f808
3d85d343
3e4e916c
be0601df
3d06faef
3dd615cd
bd199dec
3e59e7da
3d4f36b0
3ced30a0
bda32bbe
3eb01d21
be46b18b
bd5765e3
bd01ce4f
bdab8bcf
3ea3d63b
bc42f20a
be760d6c
3e337d5f
3d070110
bd3a9ae3
3e7dd10d
3e0c962e
3e0ff2a2
3c2cbd47
3e0e3ee7
3e3c310d
bbb46e29
3dc7d64d
3cc940ec
3e76fa7e
bdc6a6ff
bcf81fa5
3e05744d
3d5d6fea
3d8e1470
3dbc5517
be058ddc
bcff939b
3e7d3c48
3e07bd8d
be01c5b6
bd9c92a1
be23ed0f
3e03d465
bdbe5182
bdb2d5f2
bdd761f2
3e2737fe
bd0bbeb2
bd1e997d
bcf33a8d
be117157
3d873629
3d773b09
bda8b729
3d7aeecf
3bb1e033
3e891c7e
bdcc3cb8
3c0fc437
3ca78c64
bce1249b
3e1907a3
3d8e76c9
bdcb3ce6
bd8bdcad
3cbbf2b5
3debc1d9
3ea86f84
be5cc336
3e6dbdf5
bce11900
bc9f16af
bd47ae66
3d84d06d
be576dac
bdf24cdf
3dcebe15
bc1c8a58
3d2ba753
3d07f016
3d8833f5
3d52753b
3dae8573
bc260601
be2088e1
3cacf024
bda9076b
bcf09f97
bd3576dd
bd392078
bd64e503
3d6a4e4b
3dc663ce
3e821e03
3dbdbb3d
be4ecca1
3e8bebe2
bd11b0b3
bdd7f74d
3de4d373
3c944f35
bd72069c
be06fd26
bd8794f5
be313b1e
bcc0d78b
3db8635b
3e9e796d
3cf5ff2a
3d410a76
3dbda3cc
bd86b3fc
bd6bcb87
3c9ed736
bd81b3d8
be2962a4
3d721444
bddb874f
bbaee5bd
3df6ff9d
bdc4669d
3ddc16a7
be1c74e7
3ddf4d5c
bd3d6eab
3e41d695
bdcb7ef6
3c0293b6
3e7e067d
be046c64
bd96bcaa
be8c4ccd
3d1c6908
3d39a407
3c4f7063
bec1ca7b
bd2c87fa
3e28f763
be44c8f8
3db57c9f
3e0fdf5b
be544465
bdab3afb
3e5013ea
bddbe4ab
be024cec
bc87d82d
bdb9de18
3df89abc
3e38d8be
3ed05815
3cb6a51f
3e06b0e8
bdfea5d9
3e30bc3b
bd79e97a
be32853e
3ef62a2d
3b30726f
3dff58ae
3e52aac8
3e3c0ec6
bc2bd585
3cc0daa9
3c046611
bb92244f
3ea9ed36
3e0c9fa6
3cb479af
3d041134
bdf11ba8
3dafd792
bd292aa5
3d1c1a6c
bd8cd3af
3d834aa0
3d085cf0
bd39f412
3d02578d
bd2eff76
3b233dc2
3df92c75
3d75d7b7
bca79927
3d836eaf
3e1187f6
bc70c1eb
3e15e7c7
be10e024
bc56468c
be299d8d
3dcf222a
bde966a7
3d93f059
be1f5fc2
3d33de62
3e8f58df
bd8fd03a
bd1e4882
3e64bdd7
bdc215f1
bdc8aba4
bd83071e
3e0a9132
3e03b4e6
be246ac2
3dfebbdd
be8baf11
bc85af0f
bdeb95c4
3d9dbaab
bd4757e4
3e29670f
3e8d7319
be021968
bdc22ed9
be0c1bf7
3dc92299
bd850c70
3d3fef76
bd953323
3d3ad096
bd144bbb
bdb60e35
3c64e2cf
bd0c7d7a
bdaf7e6e
be586508
bd30f54f
3d86ab71
3de3acee
3db416af
3c97178e
bdf880be
3e2d776c
bc4c546c
3ea0c744
3cad8784
3d54ad00
3e313e0a
be5c2faa
be204f73
be0a9d46
bda896c8
3d7c5e0b
3c13363a
3d1bad1a
bd94e90c
3e3bf207
bcb002a7
bd15d785
bd1083e7
be392dc2
3eb8873f
bad9b602
bb47ebad
3d9378ee
bc68b9e0
3dc9ed89
bc4efe77
3e20162b
bdd7c3ca
bda00529
3da820cb
3e5072fd
bd87792d
ba5c57ac
3d9842a3
bc22901a
3cf81695
3d5a9206
bb871cd8
3cb5e090
bddca49f
bcf78c8f
bb375a22
3d470d5e
3d04203a
bcca8684
be01c21a
bcccb7e9
be0066fe
bd0b0520
3d841a53
be36bf22
3e0a823e
3d805e3e
3d06d3f5
3e355a32
bda7093a
3c0253c5
3e1f11cf
be0cb59a
3eea9513
3d3da11c
be1827b0
3de8d701
bc046a6e
b957ce0d
3e0007df
bc5993af
3b92bbc3
3ca2b7aa
3e346099
bd551dbe
3c98edfe
3da0df9f
3e204a1f
3dec76b7
3d8c3331
3de46faa
3d0de992
bd91b2fd
bdd383b4
bda59f3a
3d3b41c7
bd91a1e3
bde26ac0
3e0210fb
bdaa1d36
3e639a11
3d9f41c8
be3a61e2
3df08ca5
bd8b5be8
3e5f658a
3dd63810
3e25d832
3df17c21
3dfea1a7
bcfaa270
3cb3e177
bce97255
3e6038d0
3ccaa905
bd6fda0f
3e0dcc57
bd962a9b
bb14e4a6
bd5d0eb9
3d7577a0
be4713c0
3daa5a8c
3cf74ccc
3db12471
bb910347
3d67d77e
bde6fd34
3e8167f6
3dd56655
3e1f7673
bd11837d
b9944a82
bdb152e9
bd3d283a
3e092466
bdf17ec8
3dc3b315
3dfbda33
3e19be24
3d474bdc
3ca16ef8
be0a3ebf
3d5a341e
3e3a0121
bdc76e6c
bbdee999
3d29bd52
3d8c8173
3ce29753
3ec0d231
3d036eb4
3e3e053e
be17e354
3da9d610
3e86901a
bdb8698f
3e61c8fb
3cc53258
bd1f108d
bd3895d7
3e270209
3d907bbc
bc4c9bb8
3e0f7cd4
bb2b1fd4
3d3e0214
be0c59a0
bde613f2
be29ce19
bdf0b5af
3dd286f3
3d4aac9f
3e220f24
bd9a8d4f
bdd9cfbc
3e4df3d5
be14ee43
3bcfe2fd
bd28db93
3dc45800
bbd12022
bebf4ed3
3e306cf6
bdad4482
3e2158a8
be2851ae
3db34edd
3d8bffb6
bca39618
3d243149
bd8beaef
3da59fc6
3d063944
bb93b092
bd7dc7ff
be23a6eb
bcc78675
be2908c8
bb701ae2
3e2e3131
be5a2070
3d5bb790
3c071244
3da2d8d1
bddc8370
3ca07590
be3e8de1
3e30da96
3dd02ed0
3dd6b88d
3c53aab9
bdb2d849
bdef8b74
bb53810a
3e290378
3df6120c
be033f53
3e22f106
bc70a3c0
bd485e78
bd7ab840
3d815741
3da86900
bd393348
3c5e5b81
3dc1bf38
3d23832b
3e0fb77b
be71e7da
3cdaa37f
3d0a7a48
bd3c959a
3ed9fae7
bd7536a1
bd6cb51e
3e572999
bd8870c5
bdbfdce9
bb28b449
bdbfdd2f
bd3e68c6
3a5a61ad
3de49c06
3e6e7970
3dc3bb2d
3e8ba76e
3da7cd44
3e6c3922
bd76a030
3d250ea8
3dd8f52b
3daf0d54
bdcccacb
bd25ebd2
3cf98f73
bdd61a91
3ea3b08a
be144e93
3db88fd5
3dbcfb74
3df7c727
bdc45661
bd4851f0
3d9dcae3
bdeabb06
3e18c1d2
bd9ce26e
bdb09480
3dcb3681
3e267317
3dcde23d
3e32fe40
bdcdf5fa
3d846bb5
3dfc8ff9
bdc4f37e
bda9c903
3dc34af9
bc839601
3cfd2a9c
3db2818c
3bcc6d8b
bc55752d
3df824f2
3e27aa11
bdb30022
bcf5bc4e
be7e52d9
be7d438a
bd7ffbe6
bc946c4b
3e1c8548
3e2a09e7
3d828160
bdef7e03
3e0218c3
be1e7c0a
bd96d465
bd06af61
ba3a4584
bcda11c1
be3a3fb2
bc18313c
3d76e771
3d81c724
bde6bd36
3d6a5961
3df55c72
3c7976fc
bda1cc9c
bd4dc479
3d844d00
3a2f6823
3d8302bf
be69d6c1
bdefd497
3e0ac680
bccda7db
3dd8cf88
3e21557f
be6e82c8
bdc596b4
3d67e710
bd599a4d
be0dc512
bc98b9c8
bc863218
3e30b1a7
3d92d0ac
3e249257
3c691753
3e27a49e
be01dc7b
39b526ab
3c697244
be489195
3e795f98
bde0d11f
3d7ad7bf
3d14ab5c
bd39e81a
bd294b40
be1b6092
bb746f51
bdacd90c
3e3166d8
bd88a763
be079fc1
3aa89b98
bdf55842
3d0b0426
bde7cf16
be1e300d
bd5482d8
3e55f220
3dd93ed5
be2a406a
3d38faa5
bd07ed90
bd6475a5
3e89d357
3dd8c50d
bdbe4230
3d0c82b8
3e4114f9
3db10a01
3d9b7ffa
bd8494c5
be2fbb42
be0e39f7
3deacf5e
be00d2f4
3e8d72d9
3d367e58
be422065
be2b16a0
3d79ffd3
3be7376b
be8ab648
3d50dd4d
bd079510
3e7b1dad
3d81449e
bcbabeee
3d84bbeb
3d95f9ca
3d94ac94
bd8ae4d7
bd352087
bbb09ddb
bc1e7704
3cebe37e
3de439d6
bccca079
3e0c0165
3e965a99
be3285e2
3daeda05
bd8a202f
3d7d8eb0
3e411c98
bc921b8e
3d0d7112
bd525095
3e78bad0
3e006cc9
3eb6fd3e
bc1fe071
3b78d7dd
3d294698
3d68c7d1
be0088af
bda094e8
be300b9b
bd9572cb
be8a88c5
bc6acd76
bdf82a4e
bc31f313
bd1a41b8
3d70fe37
3d61a3f1
bbf46f4b
be34b6c0
be440ada
be62f0df
3d849175
3e79f29a
3c8935c9
bd7068e9
bd679095
3e833daa
be505074
bd87e534
3e37518d
be116963
3da3ac78
3e0c7120
bdffaddd
3cd94da5
bd959b90
3dcbb062
3dd5309e
3d245842
3d06f6b5
3d322b41
3ba931d5
be160a88
bdb73c52
3d72f734
3d8dbfbf
3e1fde39
bccf758b
3c912963
3d9d629d
be70da2c
bdd15975
bdc7da8e
3d6acef5
bcd49a73
3caccec0
bca9fd80
3e28afd4
bdc40369
be254196
be0f76b2
3da72936
3d989f36
3e16827c
3d764c1c
bcbe3e4c
3ea4cb46
bd794240
bccb99d2
3d1156e4
bdf2530b
3e8d8af0
bdb1afc6
bd3e6d93
3e0ee653
bddf183a
3dc860f9
3e3654e1
bda23184
be2a7dc3
3dc38e64
bd1d23f1
bd790dfa
bc01225d
3d84bed9
3ddba949
3e890bcd
bc55f0dc
3d91ab45
3d6814cf
3d6eb54f
3da02db4
bc8d6c8f
3e7a447b
be1a0e31
bd33675f
bd1443fe
3cac4400
bb09084c
be33017b
bdbe329c
bd895f31
3e056bc0
3d3620a5
3e2db16a
bd084206
bd05421f
3de8376f
bcd620c8
3c19d58e
bd19794b
3e8ae3d6
bdb766a7
bd6a2dad
3e52e8d8
3d106173
3c528acc
3e022c1f
3c3a3f69
bea9c065
3e22a371
be1613ad
bda0dc10
be0fba62
3de2ce57
3d84473f
3e0e1eee
3cd2b4be
bd47613c
bc40a2ed
3e5044d6
be03c502
3d47ebf9
bc237edf
3ca75e39
be0cec5b
bcfaba3a
bdb5316e
3e107d41
3d841b5c
3d093233
3dbb053b
3e83d250
3d86069b
3bd7a312
3d8f5c00
be0de45f
3ddc9fb0
3c16885b
bd8c1b1f
3d041cb6
3e13e7bb
3ac0600d
3e5a554c
3c082cb6
3cab4e6f
bdc22c6f
3db2cd7d
3e27c9c6
be6e10af
3e5c4ffa
3d841c52
3e7b8991
bd9bf5d8
3d394b2d
be03b7c7
bddced87
bd409912
3d1f2371
bde7d225
3c90b2eb
3d5341be
be171ec0
bdb5ec0d
bbe21cca
be01537e
3e2efb08
bb1c6f65
3d538d9a
3df553ec
3de82398
be254dea
bdbe1a1c
bd83e478
be0b4906
3dbad375
3e3c6a57
3d523bff
3d13a9fd
bd8ff2bb
3e2b28a8
3aeb991d
3d9c7f90
bd07aa7f
3dc6612c
3e4282d8
bd7257ac
bdc88490
bdbd4bab
3da06bb1
be170094
3e9e9844
be053178
3d90d0db
bb8fb050
3d7a33d9
3d7cdd4e
ba2d282c
3cd4dd3d
bcae29f1
bd3b033b
3e274614
3e12d47f
bd3e487a
bd30694b
3e61c41b
3c98c4cd
3d966127
3d042a34
3c9d678c
3e535113
3d1c2680
bd392fac
bda4d282
3e13d4a4
3c895228
3e9ff1b9
bdf49757
bcbe0570
3dc41a49
bd2b02bc
bcef8807
3e17f2b1
bdd39353
3d89cc5c
3cf85053
3cfd9bcc
3e0238b3
bc0fe34a
3d9f062d
be20dbd7
bd8092ee
bd78fbf8
be54aa5b
bbd40af4
3eb625b6
3d2fd12c
bc59710a
3d3dc9b1
bc7ec7be
3e329d0c
3ccb554b
bdbd741c
3dc2057c
bd77de31
3cf467de
3d4a151b
3e315c17
bd258b33
3e5f5524
bd6e8ea4
3cae7b5b
3e5b1c00
be1d5ec5
3e029b92
3de238d0
3aa1eff9
3e53aec6
bdab3a64
3dec97d7
3daf8892
3e68ea6e
bda455f7
bc306ac8
3d26d48f
3d8578df
bd873c92
3e0a4ddd
3c02d171
bd815ecd
bd98aed2
3d29e77f
3df21e19
3bdf63ff
bd9aa84a
3d52079e
3d53252e
bd9ca526
3d10b99b
3df35fce
3e0dff41
be09184b
3e046a0d
bda69016
bba5e802
3d9063f1
3e5ff47f
3d9851b9
3b68b48a
3d9245de
bcc8e955
3d5a397a
3e2958bb
3d8ab36c
3e36f661
3e28c5b5
3d2df2d8
3eafc1ba
bc11d7ee
be1cb29d
3e475d39
bdab79e4
bcd2abcc
3dea9f0b
bd9e7a06
3cc1463d
bc26d345
bb31caa4
bd8a3b0b
bd614dd4
bb6f8fe0
3dcb5704
3da682cb
3d412c69
bd02b81b
3de369de
bd43fba0
be1b1dcd
be2630cb
ba91d1e8
bc9f6b67
3da92fde
be3365f8
bd778134
3d31883e
3de8ac4b
bdb58216
3dcce89a
3daf24a0
3e214723
3e492887
bab02580
bd36f28f
bdca01a4
bd078de9
3e00ffff
3df540cc
bbabb4a3
3c892477
3d6e6912
3aa88b5e
bd092201
3e17d3a3
bdbf3b03
3e0fc3b3
3d5fa7e4
be12a8a1
bd9fcfcf
3cf89db7
3e14c654
bd9dc2df
3c85ae05
be18a35a
be240d2a
bd48f05a
3e8fbb7a
3cac475f
3df48976
3d7e7554
be03456d
3d825af0
be1ff99d
3e9fede2
3e23f565
bd0d59fd
3e2d83fa
be6cf9ff
3dc642eb
bd66c974
3e12e23a
bdfe4456
bda6420c
3d6687bd
3c193e73
3cbc8d3d
3cbf7583
bd754808
3d9392d0
3df8bf0e
3d798d71
3de8e36a
3d33674b
3de6387d
bd63cfcd
bdcca5ba
be5ce328
3d76b90e
3e2a25ef
3e17ba3d
be245955
be9ad9aa
bc9b0de1
3da513ce
bda79707
3e480b51
3df02aad
bd01204f
bdfb9b26
be554334
3cdc85e5
be33815a
3e1f3ebc
3e092c57
3d80bc1a
bd8eab8d
3d8e782e
be1483ee
bcee5eb2
3dbabf96
bd19ab04
3dd62bf6
bd99bd3e
be142201
bdbb61ed
3e050723
3e1d0286
3d98f950
be0e2de4
bd7bea22
badd4a5f
3d0c2bab
3ddf7dd8
3e25c1eb
bd8ef57c
3de118f5
3d145332
bd891bd6
bb37b59c
bd415394
3daeba3e
bda71222
3cd784d5
be02d825
bdac209c
bd6fe30a
3e2c23c9
3d8bb381
3e086b80
3d1591aa
bc6fa544
3e64a001
bdbfac83
bc53119b
bbf0c5a8
bd26e13f
bd52c1cb
bec40bfc
3e8eba1c
bd979fdc
3ec4ee08
bde5ded5
bdd7a8e3
bd843d35
be8180ca
3c48d5b2
3d7a9cf7
3dedbd82
3e249c6c
3d2de453
bdd7c951
bde4ee13
3c935aa0
be6842c3
3cdf197d
3e1653ee
be87e954
bdaba732
bdb3a3fa
bce01f86
3e11197e
3e216c40
be458999
3e520491
3c2beb6d
3dc654b2
3c25d6b4
3de61d6c
be3bae8e
be2d27a4
bd04f5a1
3e28ad50
bd6cda89
3d002069
be1817b0
bd822d74
be22f5aa
bcac2a93
3babaadf
3cd80b1d
bd090b35
bc8143a1
3d2f566f
3e202efc
3e398626
bd1c4c73
bdc2073d
bc483cdf
3d382c25
3e031586
be4996f5
bc7db9fc
3cd3dfc0
bca2ea8c
3dbc8942
3d954672
bda2285c
be346b64
3e4aa656
bdbbdd57
3bf3256a
bdea5fce
3dad7ebe
3e0c439a
3da0f98a
3e20d61e
3b9c288c
bd239a52
bd9016c6
be154b39
3e13b087
3dd3a4d0
be3e3a29
3d63c1d2
3e07510b
bb283e4a
bdfb2bc3
bc826ecd
bc850595
3df486b9
3cd4bd7a
3d75c719
bcf85272
3ee21f24
bdd057b1
3d8c5639
3d038cdb
bd363636
3e08cc88
bb1011d0
3dc33fee
3dfaf3fd
3e1d383e
3bf6896e
3df42c98
3e3cb38f
be051192
3d55b79b
bc4290d7
3e18abde
3c012176
3edba23a
bd8468ec
3d9038e0
bd070e00
3e3d901e
3d274f3f
3e15982b
3da40291
3e4a1385
3d2ed802
be0bf36c
3e03211e
3e025d5d
3d5e760b
be609406
3cece464
bd383b17
3d63cf92
3d99a6a3
bc34ada4
bd2730f4
3c578457
be47bf2c
3dd6abd4
be73a7e9
3d7605d5
3dea3f43
bdfb8fc5
3dbba752
3dcc2c79
be986b18
3e167939
bdcdc42d
bca91ccb
bd1cf207
3b7c22d9
3cd15ae6
bd66fb5c
3eb9db1a
3d81701e
bc0aa06c
be12e6fb
be3af527
bcd8d0fe
bd03656a
3e1b42fa
3db0396b
3e6d964a
bd843d53
3df1a411
be5e893b
3e3d3fc1
3da06714
3d5ecc32
38e2cecc
3dfd4186
be00719f
3cd62fa8
3d7d932c
bce39739
3ba027d3
3e4d17ba
3daf606e
3d77c912
3dc109e3
3d32ff75
3c5583b5
bd36f5c7
3e0ce157
3e2036db
be9201c3
3e8952c7
3d15e02c
3d80b010
3e540b52
3e3e6bbe
3e7cf981
3d3e1d73
3e379890
bcb1219d
3e016e88
bd5516ed
be0c9a7c
be38fd4b
be1ca355
bcea6832
bd720db6
3d9c3d8e
bd42e92e
3d1e764f
3dee84b8
bcadb039
bde30632
3e1bb81b
bdb4a144
bdc3796f
be1e12fd
3e7c24ca
bcebf3e3
3d9be9bd
be39740b
bc406eb2
3e1f7788
bdc2d27d
be166258
bd44b09f
3c81ceb2
3e88c395
3cfa747c
bddea32c
3d84862f
3cdd4a9b
3ca64713
3d5e63ce
3cb42f95
be3fdbe5
bdac40b5
bd744426
bd660241
bdaf1bf9
3ec3e365
3d081636
3dd86644
3d812731
3db2dcf8
3df0891f
3d962ad9
3d492d25
3baa47ff
be4b82fe
be153ef0
3d33468f
3d429806
bdcbb4d4
3d0d2661
3de8db37
be1b470d
3dea8e21
bdaac61f
bd00b2e6
3c196945
be342b06
bda5adf6
3e2ede17
bd0223dc
3cbc93b5
3e22eeef
3de9df9d
bd8b3bbe
bde455e1
bc9bf7ca
bd3029cf
3df45792
bc567bc9
bdc860ff
be2088bf
be3069d3
be1a505a
bdec6d3b
bd9cd900
3e44cdd6
be191423
be39c378
3b30d920
bb2fa568
3df64819
3d78f2b6
bdec4357
3e3a4e5a
3dc94f00
3e0fa2fa
3e56749b
3de3f73a
3e398112
be0200c3
3e16cbc4
bcab024b
3e08a1c1
3dc94b3c
bc1f4f44
3cc88539
3dd1962c
bdbe9625
3d76f5e2
3cfef048
3ccf97d8
bb8f4c6a
3c7e9a9a
3c98f022
3d968d03
3c83011d
3d883080
3e6642c3
3d814d63
3d8fdb30
3df95c8b
bd84fc66
3d69a024
3e02e939
3cb12f3d
3e0bcd0b
bce7d33a
3d5740ca
3d048f05
be162ff0
bbf9fcde
bc901528
3e3339ba
3c937672
3dcef1f3
bd4fb1f9
bd24dacb
3ee80356
bdb4f831
be2b9e5e
3e65c0c9
3ad027be
3dd25e93
3b1f7aac
3e2196c6
3e2e77d2
3dc6fb01
be2313f5
3e880120
be63abcb
bd80491d
3bedcb6c
bdb32769
bc3e62bc
3de9252e
be272c75
3df49dd0
3e2199c9
3e2fc4da
bd2553fd
be2c53e0
3dacaa79
be637ad5
3e0d88dd
3e31d977
3d960eec
be4099ff
be3709d5
3cae0259
bb99b2c0
bdf842d4
bd54fcb1
3e8a29d5
bd7f0ee5
3d931fd4
3d50ffab
bd64de19
3ea69e48
be5d9ad6
be6d55ed
bc9052d0
bc8f0b0b
3d42536d
3e5ba0f2
3e4dd615
3ccac4ff
bdc3c0e4
be6f82f6
bd0e13b8
3cc90222
3e0d15d8
bc519fb3
be3b9f29
3e5c4f10
bddf23c1
3d25137e
3e12ed21
bde7669e
bdd0fa22
bdbf763e
3d65137d
3d892b0c
3d8788df
3d4fbbe8
be00a4d5
be326530
3ddbbed6
bcba6f4f
3ca5ce03
3d879420
3d67a979
3e26cf96
be8c9cb2
bdbd846f
bda23468
be487090
3e0a2fde
bc76b668
3ed93365
3e32a01f
3df9bb4b
be8f6e88
bd18d179
bdaf0ef5
bde8477b
3e159366
bda21648
3e6c56cf
3d1e8b67
3e01db9e
3e0afcf9
3e53f643
be4c4967
3cd7c449
3da673ca
bd7317d6
be1260cf
3d8b5606
be269d87
be97378b
bdc1bac6
bc49a8d8
bd9b3e52
3cb4c6be
bd71d65a
be041101
be5ab91e
be24350f
be304290
3dea2a4b
3d37c1f9
3e499165
3e83e47a
3d504a83
bd667e52
3d97030f
bd4c9c91
3e201a78
3d31f4d0
be1bcea2
3c0d9006
be4861ee
3d9b355d
bd6c8d1c
bd224f6b
bdad287d
3d7ef76d
3dd9386a
3df625b7
bd1fe010
be0e16c5
be00de09
bdcef2a9
3cc75c8b
3d4327ca
bda1f6cf
3d317406
3d6bec76
3e40ef8c
3e47c451
be443607
3dff23fb
3db54e6c
bdcf4220
bdd605e5
3e1bac91
be8ed1a4
bd8116ac
bd4c4b9b
3ddc2a41
bdc95688
3de29744
3cc395fc
bd63f1ec
bb973a66
be4d9974
be09e5f3
be1b8117
3eb3bc07
3dea8b28
3e0c86da
be9d810e
3e6060fc
be19c769
be396366
be33d1bd
3d6ac4ec
3e87132a
bc301e32
bcdf0bdc
bc4d3600
3cb49032
be8bd0d1
bdec8666
be44a020
bcce2447
3c103de7
3d524311
3c05cce8
be8db48c
be7dd412
be017ff7
3d1906ef
3d3a7980
be1d2663
bde84d8f
be2ee5ed
be63e2fd
bdb1952e
3e989f37
bd4ed9f9
be147277
be003746
3d9d68be
be84d9b3
3d0bc3c8
3d4b2d3b
3ee5648e
3d7dbe72
be92b394
bd804bcc
3e6e7845
bd3d6bca
3e998766
3de5ca8c
3d65faa0
bda31609
be2fc586
3df50617
bd822786
bd03971b
bd5dd6df
bd5ced9a
3d3ab49a
bd81d856
3e16ca74
3ddc4f4a
bc8a1d39
bd885404
beb152c9
3e8b1ad6
bdd762e2
bbdc185f
3dab0694
be8bbb1b
be940779
3df39b7c
3e0458c7
3d1db211
3c592cfb
be93f148
3e3283b6
3bb1e2cf
be003fbf
be214cad
bdd3a736
3b50a700
bde3b48f
3e8f78f5
3e553aa9
ba5c9021
be42b109
3e42705f
bdc9aad8
3d8e0f09
be63e22d
be5a6d32
bdb8817b
3e0d457c
bc2f4f6e
be67e980
3d0a8c55
bce7b23d
bdb89f8b
bea6b7e3
3e055009
bddbcb68
3d977dcc
bca3c36b
bdc7ce8b
becf4c4f
bdeb8a93
bdc523d0
bd3b2f42
bc426d51
3d7d75bf
bdb2e424
bd88fedf
3da0e7ea
3e07791b
3e026663
3d6791b7
bd44ada5
3ce63a96
bdd867d1
3cdb5c9c
3d6d5aa7
3edb9535
3e3f9473
bdb84d58
bd660325
3dc41a66
3cbe304a
3d60f04b
3e1af2c0
bdaad200
bca993c8
bc34e3f0
3e3f29e3
be129a0e
bd0ab1fb
3bc74642
3c4da500
3e3c56ca
be34132b
3e28ee05
3de5b2ee
bd6dcb27
3dafc5c2
be9d746a
3dc6c844
bdff7b03
3d8d5c57
392212bd
be592864
be390d8f
3cd67c9f
3dcd1bd9
3e3a76ad
3b7af766
be316236
3b5cf0d6
be0c3447
bdcbb4fe
3d4cf2a8
bd1579a2
3dbda582
3edf5c16
bd139bf5
be49c562
3e13f334
b9013094
3e3e99ab
3cd95d32
3c179296
3e361b7a
3de21050
bd129069
3dcdaf1b
3cfc31ce
3c7d06ac
3cb3b06e
be270b6e
3e46f459
3d6e448d
be10ec05
3df6d4e8
bcb06864
3d3ff265
bd497db7
be15ad13
3eb2eccd
3da950fa
39be752e
bc5421ee
3dd79447
bd425481
bdc8b918
bdcf5cc1
be6ecd40
3da9ad60
3dbabf00
3c82bc8e
3de756ce
beaecbf8
3bfc8404
bdd6bb42
3cb0d33d
3e1ab6cd
3d86d0e2
3d894df3
bea2a2c9
3e839991
be0d654f
3dd244f5
3c9fc25f
be6cb978
3dbb5ebc
3e1a9157
be1fe0f8
bd8c7756
3d985d59
bde2ae78
bc8d3c66
be002588
3d18e428
bea25156
3db523f9
be76c261
beac48a2
be57108f
be9ccca9
bdaa3db0
3d2e1a7c
3bf4e954
